{
  "version": "1.0",
  "truncation": null,
  "padding": null,
  "added_tokens": [
    {
      "id": 0,
      "content": "[UNK]",
      "single_word": false,
      "lstrip": false,
      "rstrip": false,
      "normalized": false,
      "special": true
    },
    {
      "id": 1,
      "content": "[CLS]",
      "single_word": false,
      "lstrip": false,
      "rstrip": false,
      "normalized": false,
      "special": true
    },
    {
      "id": 2,
      "content": "[SEP]",
      "single_word": false,
      "lstrip": false,
      "rstrip": false,
      "normalized": false,
      "special": true
    },
    {
      "id": 3,
      "content": "[PAD]",
      "single_word": false,
      "lstrip": false,
      "rstrip": false,
      "normalized": false,
      "special": true
    },
    {
      "id": 4,
      "content": "[MASK]",
      "single_word": false,
      "lstrip": false,
      "rstrip": false,
      "normalized": false,
      "special": true
    }
  ],
  "normalizer": null,
  "pre_tokenizer": {
    "type": "Whitespace"
  },
  "post_processor": null,
  "decoder": null,
  "model": {
    "type": "BPE",
    "dropout": null,
    "unk_token": "[UNK]",
    "continuing_subword_prefix": null,
    "end_of_word_suffix": null,
    "fuse_unk": false,
    "byte_fallback": false,
    "ignore_merges": false,
    "vocab": {
      "[UNK]": 0,
      "[CLS]": 1,
      "[SEP]": 2,
      "[PAD]": 3,
      "[MASK]": 4,
      "!": 5,
      "\"": 6,
      "'": 7,
      "(": 8,
      ")": 9,
      "*": 10,
      ",": 11,
      "-": 12,
      ".": 13,
      ":": 14,
      ";": 15,
      "?": 16,
      "A": 17,
      "B": 18,
      "C": 19,
      "D": 20,
      "E": 21,
      "F": 22,
      "G": 23,
      "H": 24,
      "I": 25,
      "J": 26,
      "K": 27,
      "L": 28,
      "M": 29,
      "N": 30,
      "O": 31,
      "P": 32,
      "Q": 33,
      "R": 34,
      "S": 35,
      "T": 36,
      "U": 37,
      "V": 38,
      "W": 39,
      "X": 40,
      "Y": 41,
      "Z": 42,
      "[": 43,
      "]": 44,
      "a": 45,
      "b": 46,
      "c": 47,
      "d": 48,
      "e": 49,
      "f": 50,
      "g": 51,
      "h": 52,
      "i": 53,
      "j": 54,
      "k": 55,
      "l": 56,
      "m": 57,
      "n": 58,
      "o": 59,
      "p": 60,
      "r": 61,
      "s": 62,
      "t": 63,
      "u": 64,
      "v": 65,
      "x": 66,
      "y": 67,
      "z": 68,
      "«": 69,
      "»": 70,
      "Â": 71,
      "Î": 72,
      "â": 73,
      "î": 74,
      "Ă": 75,
      "ă": 76,
      "Ş": 77,
      "ş": 78,
      "Ţ": 79,
      "ţ": 80,
      "Ș": 81,
      "ș": 82,
      "Ț": 83,
      "ț": 84,
      "–": 85,
      "—": 86,
      "’": 87,
      "“": 88,
      "”": 89,
      "„": 90,
      "…": 91,
      "─": 92,
      "re": 93,
      "in": 94,
      "ri": 95,
      "te": 96,
      "de": 97,
      "ân": 98,
      "ul": 99,
      "un": 100,
      "ce": 101,
      "ar": 102,
      "le": 103,
      "în": 104,
      "oa": 105,
      "or": 106,
      "cu": 107,
      "..": 108,
      "tă": 109,
      "pe": 110,
      "ră": 111,
      "ca": 112,
      "me": 113,
      "se": 114,
      "al": 115,
      "ţi": 116,
      "să": 117,
      "ra": 118,
      "la": 119,
      "ta": 120,
      "mi": 121,
      "ci": 122,
      "ând": 123,
      "ie": 124,
      "că": 125,
      "lu": 126,
      "ma": 127,
      "st": 128,
      "ne": 129,
      "ru": 130,
      "ve": 131,
      "Şi": 132,
      "uri": 133,
      "ni": 134,
      "şi": 135,
      "mă": 136,
      "ine": 137,
      "ch": 138,
      "pă": 139,
      "oare": 140,
      "ste": 141,
      "și": 142,
      "zi": 143,
      "su": 144,
      "ori": 145,
      "ti": 146,
      "ge": 147,
      "vi": 148,
      "rea": 149,
      "co": 150,
      "ur": 151,
      "du": 152,
      "din": 153,
      "chi": 154,
      "oi": 155,
      "tre": 156,
      "sc": 157,
      "De": 158,
      "at": 159,
      "ini": 160,
      "gă": 161,
      "nu": 162,
      "pi": 163,
      "oar": 164,
      "Pe": 165,
      "bi": 166,
      "au": 167,
      "rin": 168,
      "ţă": 169,
      "În": 170,
      "...": 171,
      "ânt": 172,
      "sp": 173,
      "ai": 174,
      "ui": 175,
      "am": 176,
      "Cu": 177,
      "fe": 178,
      "Și": 179,
      "ro": 180,
      "lă": 181,
      "lor": 182,
      "....": 183,
      "mb": 184,
      "mai": 185,
      "li": 186,
      "ot": 187,
      "şte": 188,
      "pa": 189,
      "si": 190,
      "nt": 191,
      "Ca": 192,
      "une": 193,
      "fi": 194,
      "tu": 195,
      "cum": 196,
      "dul": 197,
      "Ce": 198,
      "tea": 199,
      "ată": 200,
      "Că": 201,
      "prin": 202,
      "cea": 203,
      "mea": 204,
      "ză": 205,
      "iu": 206,
      "ze": 207,
      "be": 208,
      "ină": 209,
      "ind": 210,
      "run": 211,
      "sa": 212,
      "ară": 213,
      "Să": 214,
      "bă": 215,
      "fa": 216,
      "rul": 217,
      "pri": 218,
      "lun": 219,
      "pu": 220,
      "ei": 221,
      "câ": 222,
      "vă": 223,
      "gi": 224,
      "lo": 225,
      "di": 226,
      "dă": 227,
      "ea": 228,
      "fă": 229,
      "mân": 230,
      "ochi": 231,
      "mp": 232,
      "când": 233,
      "fl": 234,
      "os": 235,
      "ba": 236,
      "ţa": 237,
      "mul": 238,
      "ad": 239,
      "cul": 240,
      "nă": 241,
      "ale": 242,
      "ţii": 243,
      "po": 244,
      "toare": 245,
      "lân": 246,
      "tul": 247,
      "dulce": 248,
      "iubi": 249,
      "sul": 250,
      "ţe": 251,
      "oap": 252,
      "sun": 253,
      "suf": 254,
      "zb": 255,
      "lume": 256,
      "tor": 257,
      "om": 258,
      "rum": 259,
      "mânt": 260,
      "lui": 261,
      "stră": 262,
      "care": 263,
      "na": 264,
      "........": 265,
      "tot": 266,
      "Când": 267,
      "Dar": 268,
      "şti": 269,
      "ște": 270,
      "min": 271,
      "meu": 272,
      "Un": 273,
      "da": 274,
      "înt": 275,
      "oară": 276,
      "fo": 277,
      "el": 278,
      "rii": 279,
      "dor": 280,
      "cân": 281,
      "Nu": 282,
      "op": 283,
      "cre": 284,
      "gând": 285,
      "tine": 286,
      "ga": 287,
      "ace": 288,
      "va": 289,
      "Iar": 290,
      "sufle": 291,
      "cri": 292,
      "soare": 293,
      "La": 294,
      "rei": 295,
      "mând": 296,
      "ști": 297,
      "stă": 298,
      "sub": 299,
      "flori": 300,
      "er": 301,
      "frun": 302,
      "voi": 303,
      "oasă": 304,
      "Se": 305,
      "sf": 306,
      "noap": 307,
      "umb": 308,
      "oate": 309,
      "râ": 310,
      "sân": 311,
      "cer": 312,
      "vie": 313,
      "Căci": 314,
      "Din": 315,
      "frum": 316,
      "do": 317,
      "ună": 318,
      "feri": 319,
      "ii": 320,
      "mor": 321,
      "sta": 322,
      "gu": 323,
      "tri": 324,
      "vânt": 325,
      "gla": 326,
      "aluri": 327,
      "dra": 328,
      "rân": 329,
      "ochii": 330,
      "lin": 331,
      "za": 332,
      "via": 333,
      "ia": 334,
      "bra": 335,
      "inte": 336,
      "vo": 337,
      "par": 338,
      "âr": 339,
      "neg": 340,
      "mine": 341,
      "vor": 342,
      "pământ": 343,
      "copi": 344,
      "tare": 345,
      "nici": 346,
      "muri": 347,
      "vre": 348,
      "dea": 349,
      "lea": 350,
      "mare": 351,
      "mu": 352,
      "on": 353,
      "ână": 354,
      "crimi": 355,
      "ap": 356,
      "bu": 357,
      "uă": 358,
      "des": 359,
      "Su": 360,
      "aş": 361,
      "Du": 362,
      "eu": 363,
      "pt": 364,
      "vis": 365,
      "sim": 366,
      "unde": 367,
      "nic": 368,
      "stele": 369,
      "sunt": 370,
      "gin": 371,
      "ntru": 372,
      "gh": 373,
      "pie": 374,
      "ara": 375,
      "tău": 376,
      "tră": 377,
      "no": 378,
      "ver": 379,
      "vese": 380,
      "Ve": 381,
      "fu": 382,
      "mne": 383,
      "plân": 384,
      "scă": 385,
      "rele": 386,
      "mun": 387,
      "nul": 388,
      "od": 389,
      "mult": 390,
      "El": 391,
      "Tu": 392,
      "fără": 393,
      "peste": 394,
      "Ni": 395,
      "to": 396,
      "!“": 397,
      "cel": 398,
      "luci": 399,
      "ol": 400,
      "oase": 401,
      "mii": 402,
      "Al": 403,
      "Si": 404,
      "are": 405,
      "tur": 406,
      "cal": 407,
      "albe": 408,
      "rai": 409,
      "por": 410,
      "cât": 411,
      "floare": 412,
      "înge": 413,
      "--": 414,
      "pre": 415,
      "unci": 416,
      "ele": 417,
      "cod": 418,
      "dure": 419,
      "trece": 420,
      "asc": 421,
      "suflet": 422,
      "vine": 423,
      "cat": 424,
      "Do": 425,
      "rând": 426,
      "zâ": 427,
      "Unde": 428,
      "Ea": 429,
      "gră": 430,
      "moar": 431,
      "cere": 432,
      "tat": 433,
      "................": 434,
      "Mă": 435,
      "mei": 436,
      "ruri": 437,
      "săru": 438,
      "che": 439,
      "Cum": 440,
      "noi": 441,
      "păr": 442,
      "glas": 443,
      "ari": 444,
      "gul": 445,
      "iar": 446,
      "spre": 447,
      "nal": 448,
      "ut": 449,
      "mele": 450,
      "noaptea": 451,
      "Pă": 452,
      "fie": 453,
      "pân": 454,
      "ple": 455,
      "cântă": 456,
      "cru": 457,
      "meni": 458,
      "aur": 459,
      "fal": 460,
      "tori": 461,
      "vea": 462,
      "ferici": 463,
      "parte": 464,
      "aste": 465,
      "toate": 466,
      "vin": 467,
      "ului": 468,
      "fel": 469,
      "bine": 470,
      "cut": 471,
      "lumea": 472,
      "mneze": 473,
      "nin": 474,
      "valuri": 475,
      "lum": 476,
      "vec": 477,
      "duce": 478,
      "noapte": 479,
      "vesel": 480,
      "guri": 481,
      "una": 482,
      "stin": 483,
      "inic": 484,
      "cor": 485,
      "tr": 486,
      "cale": 487,
      "pl": 488,
      "pal": 489,
      "ât": 490,
      "cerul": 491,
      "curi": 492,
      "UL": 493,
      "este": 494,
      "rit": 495,
      "câmp": 496,
      "dar": 497,
      "sin": 498,
      "albă": 499,
      "amor": 500,
      "pust": 501,
      "odată": 502,
      "!...": 503,
      "nor": 504,
      "uni": 505,
      "crimioare": 506,
      "mur": 507,
      "nce": 508,
      "nea": 509,
      "nii": 510,
      "măr": 511,
      "stea": 512,
      "foc": 513,
      "Eu": 514,
      "Lă": 515,
      "Tot": 516,
      "roa": 517,
      "altă": 518,
      "luri": 519,
      "stfel": 520,
      "zice": 521,
      "adân": 522,
      "zbor": 523,
      "viaţă": 524,
      "an": 525,
      "lori": 526,
      "reu": 527,
      "Care": 528,
      "acum": 529,
      "dân": 530,
      "stru": 531,
      "văz": 532,
      "ţele": 533,
      "lumină": 534,
      "II": 535,
      "fra": 536,
      "lând": 537,
      "pla": 538,
      "alb": 539,
      "atunci": 540,
      "inima": 541,
      "nume": 542,
      "luna": 543,
      "frunte": 544,
      "Ne": 545,
      "mo": 546,
      "ptă": 547,
      "pat": 548,
      "trun": 549,
      "tate": 550,
      "viaţa": 551,
      "Iată": 552,
      "Lu": 553,
      "nop": 554,
      "tele": 555,
      "cur": 556,
      "pare": 557,
      "privi": 558,
      "fost": 559,
      "Au": 560,
      "Tre": 561,
      "mar": 562,
      "pot": 563,
      "uş": 564,
      "vrea": 565,
      "ina": 566,
      "tei": 567,
      "veni": 568,
      "zile": 569,
      "bate": 570,
      "simţi": 571,
      "cun": 572,
      "pul": 573,
      "so": 574,
      "veci": 575,
      "susp": 576,
      "iubire": 577,
      "sună": 578,
      "Nici": 579,
      "jă": 580,
      "pentru": 581,
      "Doine": 582,
      "Paste": 583,
      "Ră": 584,
      "îi": 585,
      "tale": 586,
      "vii": 587,
      "faţa": 588,
      "sfânt": 589,
      "Dumneze": 590,
      "Lăcrimioare": 591,
      "Pasteluri": 592,
      "eşti": 593,
      "iz": 594,
      "mpă": 595,
      "nd": 596,
      "pra": 597,
      "scum": 598,
      "mări": 599,
      "într": 600,
      "gură": 601,
      "Co": 602,
      "Mi": 603,
      "aș": 604,
      "era": 605,
      "fun": 606,
      "og": 607,
      "îl": 608,
      "cată": 609,
      "lumin": 610,
      "inici": 611,
      "drag": 612,
      "ceruri": 613,
      "între": 614,
      "per": 615,
      "alba": 616,
      "vede": 617,
      "duc": 618,
      "ginga": 619,
      "zâmb": 620,
      "Prin": 621,
      "aprin": 622,
      "jale": 623,
      "plu": 624,
      "ume": 625,
      "înce": 626,
      "sti": 627,
      "stre": 628,
      "dulci": 629,
      "face": 630,
      "loc": 631,
      "umbră": 632,
      "Mul": 633,
      "Te": 634,
      "aţi": 635,
      "dat": 636,
      "gân": 637,
      "noa": 638,
      "toa": 639,
      "turi": 640,
      "vâr": 641,
      "făr": 642,
      "Dumnezeu": 643,
      "Ar": 644,
      "oc": 645,
      "plă": 646,
      "tând": 647,
      "trân": 648,
      "vale": 649,
      "inde": 650,
      "luce": 651,
      "mari": 652,
      "pătrun": 653,
      "colo": 654,
      "amar": 655,
      "mpre": 656,
      "vântul": 657,
      "Pre": 658,
      "blând": 659,
      "cli": 660,
      "ter": 661,
      "încă": 662,
      "răţi": 663,
      "Pentru": 664,
      "lângă": 665,
      "umbra": 666,
      "vieţii": 667,
      "Fă": 668,
      "dre": 669,
      "ful": 670,
      "is": 671,
      "ju": 672,
      "mbi": 673,
      "rie": 674,
      "departe": 675,
      "rat": 676,
      "ier": 677,
      "nimi": 678,
      "dorul": 679,
      "moarte": 680,
      "Mai": 681,
      "ală": 682,
      "mie": 683,
      "dui": 684,
      "ntr": 685,
      "lung": 686,
      "Ro": 687,
      "ape": 688,
      "jun": 689,
      "poar": 690,
      "arme": 691,
      "mormânt": 692,
      "Flori": 693,
      "gra": 694,
      "ridi": 695,
      "vechi": 696,
      "sus": 697,
      "Peste": 698,
      "Sub": 699,
      "gingaş": 700,
      "Cine": 701,
      "RE": 702,
      "RI": 703,
      "ave": 704,
      "dră": 705,
      "doi": 706,
      "pune": 707,
      "rece": 708,
      "cei": 709,
      "mer": 710,
      "său": 711,
      "orice": 712,
      "urmă": 713,
      "numai": 714,
      "deschi": 715,
      "înger": 716,
      "Ei": 717,
      "coa": 718,
      "cine": 719,
      "mpi": 720,
      "soar": 721,
      "tie": 722,
      "ua": 723,
      "depăr": 724,
      "cele": 725,
      "scân": 726,
      "prive": 727,
      "glasul": 728,
      "toţi": 729,
      "unt": 730,
      "sare": 731,
      "frumoasă": 732,
      "falnic": 733,
      "gur": 734,
      "gini": 735,
      "nori": 736,
      "sca": 737,
      "vară": 738,
      "âl": 739,
      "reşte": 740,
      "intre": 741,
      "răsp": 742,
      "lacrimi": 743,
      "nele": 744,
      "col": 745,
      "român": 746,
      "ntune": 747,
      "văd": 748,
      "poe": 749,
      "frumos": 750,
      "ascul": 751,
      "îmi": 752,
      "arun": 753,
      "cui": 754,
      "spune": 755,
      "lună": 756,
      "ferice": 757,
      "apoi": 758,
      "aripi": 759,
      "fericire": 760,
      "Ah": 761,
      "At": 762,
      "Pri": 763,
      "gro": 764,
      "ora": 765,
      "cuprin": 766,
      "tic": 767,
      "cob": 768,
      "după": 769,
      "iube": 770,
      "bătrân": 771,
      "mâna": 772,
      "negru": 773,
      "plânge": 774,
      ".\"": 775,
      "Astfel": 776,
      "af": 777,
      "dom": 778,
      "ha": 779,
      "mal": 780,
      "ţul": 781,
      "ţară": 782,
      "argin": 783,
      "raze": 784,
      "lan": 785,
      "tată": 786,
      "călă": 787,
      "veste": 788,
      "oara": 789,
      "ntrea": 790,
      "lungi": 791,
      "pus": 792,
      "zboară": 793,
      "gândi": 794,
      "munţi": 795,
      "Zi": 796,
      "schi": 797,
      "uie": 798,
      "val": 799,
      "rile": 800,
      "tăi": 801,
      "ţie": 802,
      "mier": 803,
      "stri": 804,
      "chea": 805,
      "Într": 806,
      "fac": 807,
      "dis": 808,
      "iubit": 809,
      "iubită": 810,
      "sufletul": 811,
      "sânge": 812,
      "verde": 813,
      "codri": 814,
      "DE": 815,
      "auri": 816,
      "apă": 817,
      "suri": 818,
      "ţei": 819,
      "ântă": 820,
      "rău": 821,
      "răsă": 822,
      "dus": 823,
      "fer": 824,
      "cânta": 825,
      "două": 826,
      ".“": 827,
      "Dra": 828,
      "Fe": 829,
      "TE": 830,
      "ajun": 831,
      "mon": 832,
      "ntre": 833,
      "poate": 834,
      "ură": 835,
      "ura": 836,
      "âi": 837,
      "senin": 838,
      "urma": 839,
      "bia": 840,
      "mbă": 841,
      "mână": 842,
      "Numai": 843,
      "fruntea": 844,
      "sânul": 845,
      "braţe": 846,
      "aşa": 847,
      "ghea": 848,
      "munte": 849,
      "fulge": 850,
      "Vi": 851,
      "Vin": 852,
      "duri": 853,
      "pte": 854,
      "pro": 855,
      "scu": 856,
      "sat": 857,
      "zând": 858,
      "inţă": 859,
      "trei": 860,
      "sprin": 861,
      "gânduri": 862,
      "gura": 863,
      "pământul": 864,
      "pier": 865,
      "durere": 866,
      "suspin": 867,
      "Da": 868,
      "Le": 869,
      "OA": 870,
      "OR": 871,
      "aer": 872,
      "lini": 873,
      "tind": 874,
      "argă": 875,
      "arată": 876,
      "cade": 877,
      "rază": 878,
      "iei": 879,
      "vei": 880,
      "chin": 881,
      "pici": 882,
      "sit": 883,
      "fii": 884,
      "câte": 885,
      "câmpi": 886,
      "oapte": 887,
      "dragă": 888,
      "zâmbe": 889,
      "Ba": 890,
      "Cât": 891,
      "Ochi": 892,
      "astă": 893,
      "bo": 894,
      "lul": 895,
      "mn": 896,
      "pun": 897,
      "spe": 898,
      "tro": 899,
      "şe": 900,
      "miș": 901,
      "strân": 902,
      "faţă": 903,
      "mâne": 904,
      "minte": 905,
      "râu": 906,
      "leacă": 907,
      "................................": 908,
      "Mări": 909,
      "Ci": 910,
      "Dul": 911,
      "Dor": 912,
      "Lân": 913,
      "Me": 914,
      "Sunt": 915,
      "Voi": 916,
      "ază": 917,
      "iară": 918,
      "maluri": 919,
      "vul": 920,
      "deodată": 921,
      "arul": 922,
      "legă": 923,
      "oaie": 924,
      "răpi": 925,
      "mereu": 926,
      "nit": 927,
      "viu": 928,
      "chiar": 929,
      "lânde": 930,
      "minune": 931,
      "trist": 932,
      "nalţă": 933,
      "vecinici": 934,
      "nopţii": 935,
      "toată": 936,
      "poartă": 937,
      "Am": 938,
      "azi": 939,
      "blânde": 940,
      "fle": 941,
      "frăţi": 942,
      "iată": 943,
      "nun": 944,
      "pur": 945,
      "tin": 946,
      "ţin": 947,
      "deşte": 948,
      "alt": 949,
      "taini": 950,
      "mire": 951,
      "vezi": 952,
      "gea": 953,
      "duh": 954,
      "pase": 955,
      "tinere": 956,
      "mândru": 957,
      "plină": 958,
      "dismier": 959,
      "apa": 960,
      "bul": 961,
      "drum": 962,
      "ești": 963,
      "farme": 964,
      "go": 965,
      "je": 966,
      "ji": 967,
      "lină": 968,
      "âie": 969,
      "resc": 970,
      "tainic": 971,
      "stân": 972,
      "visul": 973,
      "inimă": 974,
      "bii": 975,
      "ţării": 976,
      "uit": 977,
      "fan": 978,
      "lungă": 979,
      "întune": 980,
      "crește": 981,
      "negre": 982,
      "leagă": 983,
      "zâmbi": 984,
      "ntreagă": 985,
      "Ma": 986,
      "bună": 987,
      "cind": 988,
      "sar": 989,
      "som": 990,
      "rege": 991,
      "unui": 992,
      "cad": 993,
      "calea": 994,
      "lare": 995,
      "trec": 996,
      "uită": 997,
      "lit": 998,
      "pace": 999,
      "câr": 1000,
      "străin": 1001,
      "soarele": 1002,
      "zare": 1003,
      "izvor": 1004,
      "Precum": 1005,
      "crun": 1006,
      "fla": 1007,
      "fur": 1008,
      "pră": 1009,
      "plin": 1010,
      "vrei": 1011,
      "ÂN": 1012,
      "împ": 1013,
      "şa": 1014,
      "ţara": 1015,
      "teşte": 1016,
      "arsă": 1017,
      "lasă": 1018,
      "ându": 1019,
      "iesc": 1020,
      "ziua": 1021,
      "chip": 1022,
      "inimi": 1023,
      "cump": 1024,
      "ber": 1025,
      "primă": 1026,
      "pute": 1027,
      "lumei": 1028,
      "tristă": 1029,
      "Sufle": 1030,
      "ghe": 1031,
      "floarea": 1032,
      "singur": 1033,
      "plai": 1034,
      "venit": 1035,
      "încet": 1036,
      "noastră": 1037,
      "?...": 1038,
      "Câ": 1039,
      "IN": 1040,
      "Ori": 1041,
      "astfel": 1042,
      "clo": 1043,
      "greu": 1044,
      "mori": 1045,
      "oţi": 1046,
      "ocul": 1047,
      "pta": 1048,
      "um": 1049,
      "voare": 1050,
      "vind": 1051,
      "şma": 1052,
      "șe": 1053,
      "rită": 1054,
      "lei": 1055,
      "ran": 1056,
      "cit": 1057,
      "trecu": 1058,
      "aude": 1059,
      "unei": 1060,
      "multe": 1061,
      "umbre": 1062,
      "voini": 1063,
      "visuri": 1064,
      "ascun": 1065,
      "sărută": 1066,
      "răsărit": 1067,
      "Dom": 1068,
      "Mer": 1069,
      "Vă": 1070,
      "av": 1071,
      "bie": 1072,
      "dată": 1073,
      "nat": 1074,
      "trea": 1075,
      "zul": 1076,
      "şor": 1077,
      "ren": 1078,
      "ins": 1079,
      "oale": 1080,
      "capul": 1081,
      "ald": 1082,
      "săl": 1083,
      "lumine": 1084,
      "lumii": 1085,
      "marea": 1086,
      "mărei": 1087,
      "părul": 1088,
      "supra": 1089,
      "vise": 1090,
      "roze": 1091,
      "tează": 1092,
      "adar": 1093,
      "focul": 1094,
      "crede": 1095,
      "ghi": 1096,
      "codrul": 1097,
      "moartea": 1098,
      "câmpie": 1099,
      "dânsul": 1100,
      "Mult": 1101,
      "drept": 1102,
      "ridică": 1103,
      "Atunci": 1104,
      "Lângă": 1105,
      "LE": 1106,
      "ade": 1107,
      "cânt": 1108,
      "fată": 1109,
      "lind": 1110,
      "poi": 1111,
      "sau": 1112,
      "slă": 1113,
      "tână": 1114,
      "şoapte": 1115,
      "dele": 1116,
      "rătă": 1117,
      "taină": 1118,
      "mic": 1119,
      "șii": 1120,
      "zii": 1121,
      "sur": 1122,
      "con": 1123,
      "ntinde": 1124,
      "mândră": 1125,
      "voios": 1126,
      "nouă": 1127,
      "grădin": 1128,
      "stinge": 1129,
      "văzut": 1130,
      "fund": 1131,
      "lumina": 1132,
      "aruncă": 1133,
      "argint": 1134,
      "LA": 1135,
      "aşte": 1136,
      "avea": 1137,
      "bol": 1138,
      "gom": 1139,
      "ile": 1140,
      "ptul": 1141,
      "pleacă": 1142,
      "rilor": 1143,
      "oasa": 1144,
      "oră": 1145,
      "răsună": 1146,
      "laşi": 1147,
      "atât": 1148,
      "pii": 1149,
      "oarce": 1150,
      "oarme": 1151,
      "auzi": 1152,
      "tură": 1153,
      "dulcea": 1154,
      "văr": 1155,
      "torul": 1156,
      "străluci": 1157,
      "sânu": 1158,
      "vorbe": 1159,
      "copii": 1160,
      "vreme": 1161,
      "mură": 1162,
      "ceresc": 1163,
      "mărgă": 1164,
      "roape": 1165,
      ",-": 1166,
      "CE": 1167,
      "Fa": 1168,
      "Fu": 1169,
      "Iu": 1170,
      "Sta": 1171,
      "ani": 1172,
      "acea": 1173,
      "bat": 1174,
      "dau": 1175,
      "fri": 1176,
      "flă": 1177,
      "gon": 1178,
      "ho": 1179,
      "până": 1180,
      "sori": 1181,
      "tru": 1182,
      "înflori": 1183,
      "răc": 1184,
      "răm": 1185,
      "cate": 1186,
      "rare": 1187,
      "rate": 1188,
      "man": 1189,
      "măre": 1190,
      "păsă": 1191,
      "geme": 1192,
      "feci": 1193,
      "sale": 1194,
      "cânte": 1195,
      "acel": 1196,
      "stăpân": 1197,
      "verzi": 1198,
      "câmpul": 1199,
      "văzduh": 1200,
      "uşor": 1201,
      "simţire": 1202,
      "Arald": 1203,
      "iubesc": 1204,
      "Feri": 1205,
      "picioare": 1206,
      "Ochii": 1207,
      "Dulce": 1208,
      "AN": 1209,
      "Hai": 1210,
      "RO": 1211,
      "Re": 1212,
      "aduce": 1213,
      "bun": 1214,
      "car": 1215,
      "crea": 1216,
      "drea": 1217,
      "pintre": 1218,
      "voa": 1219,
      "zân": 1220,
      "zie": 1221,
      "ţine": 1222,
      "inţi": 1223,
      "cii": 1224,
      "căl": 1225,
      "lucea": 1226,
      "nei": 1227,
      "urile": 1228,
      "chină": 1229,
      "vit": 1230,
      "duşma": 1231,
      "tremur": 1232,
      "scri": 1233,
      "Decât": 1234,
      "atun": 1235,
      "uita": 1236,
      "ador": 1237,
      "adună": 1238,
      "popor": 1239,
      "ştiu": 1240,
      "acele": 1241,
      "mândre": 1242,
      "mândrul": 1243,
      "frunze": 1244,
      "copilă": 1245,
      "aproape": 1246,
      "pustie": 1247,
      "adâncă": 1248,
      "dânsa": 1249,
      "scumpe": 1250,
      "oglind": 1251,
      "noastre": 1252,
      "mpreună": 1253,
      "merge": 1254,
      "depărtare": 1255,
      "scânte": 1256,
      "coboară": 1257,
      "furt": 1258,
      "gomot": 1259,
      "!\"": 1260,
      "Iară": 1261,
      "Ui": 1262,
      "Zb": 1263,
      "ate": 1264,
      "asta": 1265,
      "flu": 1266,
      "gri": 1267,
      "jos": 1268,
      "nind": 1269,
      "oste": 1270,
      "sune": 1271,
      "saltă": 1272,
      "uș": 1273,
      "varsă": 1274,
      "împă": 1275,
      "şop": 1276,
      "reg": 1277,
      "orul": 1278,
      "casă": 1279,
      "sea": 1280,
      "alnic": 1281,
      "ţile": 1282,
      "rată": 1283,
      "tan": 1284,
      "miş": 1285,
      "mică": 1286,
      "neşte": 1287,
      "păre": 1288,
      "ziori": 1289,
      "timp": 1290,
      "trecă": 1291,
      "ţăr": 1292,
      "spume": 1293,
      "fete": 1294,
      "ros": 1295,
      "mbra": 1296,
      "lia": 1297,
      "liber": 1298,
      "zăpa": 1299,
      "sufletu": 1300,
      "sfâr": 1301,
      "morţii": 1302,
      "Sus": 1303,
      "piept": 1304,
      "trăi": 1305,
      "nostru": 1306,
      "calul": 1307,
      "raiul": 1308,
      "stins": 1309,
      "noroc": 1310,
      "ncet": 1311,
      "aprinde": 1312,
      "clipă": 1313,
      "tânăr": 1314,
      "Ch": 1315,
      "Era": 1316,
      "Mol": 1317,
      "Po": 1318,
      "Sa": 1319,
      "bar": 1320,
      "iţă": 1321,
      "tal": 1322,
      "us": 1323,
      "ure": 1324,
      "zadar": 1325,
      "ric": 1326,
      "deal": 1327,
      "ânta": 1328,
      "ceri": 1329,
      "arde": 1330,
      "armă": 1331,
      "înal": 1332,
      "peri": 1333,
      "pele": 1334,
      "cai": 1335,
      "can": 1336,
      "nesc": 1337,
      "nemuri": 1338,
      "vite": 1339,
      "aud": 1340,
      "rind": 1341,
      "amând": 1342,
      "aminte": 1343,
      "zea": 1344,
      "privind": 1345,
      "gii": 1346,
      "ochiul": 1347,
      "ada": 1348,
      "zbur": 1349,
      "dacă": 1350,
      "acest": 1351,
      "vremea": 1352,
      "simte": 1353,
      "palat": 1354,
      "pătrunde": 1355,
      "legăna": 1356,
      "farmec": 1357,
      "Moldo": 1358,
      "Acum": 1359,
      "Aşa": 1360,
      "Doa": 1361,
      "Frun": 1362,
      "Li": 1363,
      "Mii": 1364,
      "Pu": 1365,
      "Pân": 1366,
      "Pintre": 1367,
      "Vânt": 1368,
      "Via": 1369,
      "blo": 1370,
      "clin": 1371,
      "pui": 1372,
      "rma": 1373,
      "zori": 1374,
      "zgomot": 1375,
      "tesc": 1376,
      "unul": 1377,
      "tăcere": 1378,
      "pere": 1379,
      "răzb": 1380,
      "ramuri": 1381,
      "tatea": 1382,
      "mit": 1383,
      "luptă": 1384,
      "veşte": 1385,
      "rează": 1386,
      "dut": 1387,
      "atâ": 1388,
      "bire": 1389,
      "roș": 1390,
      "lii": 1391,
      "fior": 1392,
      "fiinţă": 1393,
      "bea": 1394,
      "aleargă": 1395,
      "voinici": 1396,
      "parfu": 1397,
      "aptă": 1398,
      "ascunde": 1399,
      "glasuri": 1400,
      "guriţă": 1401,
      "pali": 1402,
      "frate": 1403,
      "suspină": 1404,
      "Copi": 1405,
      "cheamă": 1406,
      "gheaţă": 1407,
      "astăzi": 1408,
      "Ai": 1409,
      "Cântă": 1410,
      "Ini": 1411,
      "Noi": 1412,
      "Toţi": 1413,
      "UI": 1414,
      "Va": 1415,
      "acu": 1416,
      "ainte": 1417,
      "binte": 1418,
      "cl": 1419,
      "eter": 1420,
      "for": 1421,
      "fânt": 1422,
      "nţele": 1423,
      "ngro": 1424,
      "omul": 1425,
      "sme": 1426,
      "sal": 1427,
      "zu": 1428,
      "Îi": 1429,
      "reci": 1430,
      "indu": 1431,
      "sen": 1432,
      "alte": 1433,
      "săi": 1434,
      "raţi": 1435,
      "lah": 1436,
      "cio": 1437,
      "ciune": 1438,
      "cătră": 1439,
      "mas": 1440,
      "neam": 1441,
      "şit": 1442,
      "zis": 1443,
      "orii": 1444,
      "rească": 1445,
      "duci": 1446,
      "dumneze": 1447,
      "trecut": 1448,
      "atră": 1449,
      "spai": 1450,
      "primb": 1451,
      "puter": 1452,
      "locul": 1453,
      "dimine": 1454,
      "mulţi": 1455,
      "năluci": 1456,
      "suflă": 1457,
      "aceea": 1458,
      "știu": 1459,
      "râde": 1460,
      "negri": 1461,
      "buze": 1462,
      "După": 1463,
      "simt": 1464,
      "Vene": 1465,
      "Vezi": 1466,
      "fug": 1467,
      "Allah": 1468,
      "Măi": 1469,
      "cruce": 1470,
      "vecinic": 1471,
      "veselie": 1472,
      "privesc": 1473,
      "sprinte": 1474,
      "vecinicie": 1475,
      "flăcă": 1476,
      "?“": 1477,
      "AR": 1478,
      "Azi": 1479,
      "Cod": 1480,
      "Mar": 1481,
      "Noap": 1482,
      "Stă": 1483,
      "Stră": 1484,
      "Ta": 1485,
      "UN": 1486,
      "az": 1487,
      "aco": 1488,
      "abia": 1489,
      "bal": 1490,
      "gâ": 1491,
      "jur": 1492,
      "mnă": 1493,
      "opri": 1494,
      "poa": 1495,
      "sând": 1496,
      "vara": 1497,
      "ştie": 1498,
      "inge": 1499,
      "ria": 1500,
      "dealuri": 1501,
      "încântă": 1502,
      "oameni": 1503,
      "cuv": 1504,
      "cuvânt": 1505,
      "semn": 1506,
      "albi": 1507,
      "şii": 1508,
      "părea": 1509,
      "zise": 1510,
      "tici": 1511,
      "tică": 1512,
      "aua": 1513,
      "pas": 1514,
      "iute": 1515,
      "luncă": 1516,
      "făcut": 1517,
      "sunte": 1518,
      "străbate": 1519,
      "cren": 1520,
      "creşte": 1521,
      "gândul": 1522,
      "subţi": 1523,
      "stau": 1524,
      "caldă": 1525,
      "plete": 1526,
      "veacuri": 1527,
      "mărgini": 1528,
      "adânc": 1529,
      "privire": 1530,
      "margini": 1531,
      "Multe": 1532,
      "nimic": 1533,
      "Român": 1534,
      "ferbinte": 1535,
      "mișcă": 1536,
      "fanta": 1537,
      "sărutări": 1538,
      "Domnul": 1539,
      "rămâi": 1540,
      "clinti": 1541,
      "Noaptea": 1542,
      "!»": 1543,
      "Apoi": 1544,
      "Frum": 1545,
      "Plân": 1546,
      "Toate": 1547,
      "anii": 1548,
      "buni": 1549,
      "frân": 1550,
      "gie": 1551,
      "giu": 1552,
      "oşi": 1553,
      "omeni": 1554,
      "pin": 1555,
      "prea": 1556,
      "vai": 1557,
      "vuie": 1558,
      "ÎN": 1559,
      "își": 1560,
      "şă": 1561,
      "şul": 1562,
      "inta": 1563,
      "desc": 1564,
      "cau": 1565,
      "ţia": 1566,
      "las": 1567,
      "mile": 1568,
      "mici": 1569,
      "mirea": 1570,
      "ieri": 1571,
      "stra": 1572,
      "nemărgini": 1573,
      "rui": 1574,
      "stej": 1575,
      "zit": 1576,
      "tii": 1577,
      "ger": 1578,
      "urlă": 1579,
      "atra": 1580,
      "aice": 1581,
      "tut": 1582,
      "printre": 1583,
      "mează": 1584,
      "văi": 1585,
      "mângă": 1586,
      "întin": 1587,
      "întinde": 1588,
      "credin": 1589,
      "Las": 1590,
      "frumoase": 1591,
      "dragul": 1592,
      "braz": 1593,
      "voie": 1594,
      "copila": 1595,
      "murit": 1596,
      "mura": 1597,
      "plâng": 1598,
      "sărutare": 1599,
      "fală": 1600,
      "torii": 1601,
      "zilele": 1602,
      "cunos": 1603,
      "scumpă": 1604,
      "Dacă": 1605,
      "câmpii": 1606,
      "Mărioara": 1607,
      "putere": 1608,
      "Câte": 1609,
      "gondo": 1610,
      "oglindă": 1611,
      "Vântul": 1612,
      "Viaţa": 1613,
      "crengi": 1614,
      "Lun": 1615,
      "Sin": 1616,
      "Spune": 1617,
      "VE": 1618,
      "aduc": 1619,
      "acolo": 1620,
      "dori": 1621,
      "furi": 1622,
      "gre": 1623,
      "gine": 1624,
      "galbe": 1625,
      "groa": 1626,
      "ka": 1627,
      "mpe": 1628,
      "moare": 1629,
      "nie": 1630,
      "ptu": 1631,
      "sor": 1632,
      "sla": 1633,
      "sco": 1634,
      "spi": 1635,
      "scut": 1636,
      "tra": 1637,
      "îşi": 1638,
      "îmb": 1639,
      "şer": 1640,
      "armon": 1641,
      "însă": 1642,
      "înţele": 1643,
      "răpe": 1644,
      "rămas": 1645,
      "alun": 1646,
      "alta": 1647,
      "lat": 1648,
      "tatare": 1649,
      "ciu": 1650,
      "lup": 1651,
      "rugă": 1652,
      "vedea": 1653,
      "vesti": 1654,
      "suveni": 1655,
      "videa": 1656,
      "dintre": 1657,
      "dintr": 1658,
      "trest": 1659,
      "Între": 1660,
      "fere": 1661,
      "fiori": 1662,
      "băr": 1663,
      "privea": 1664,
      "poţi": 1665,
      "toarea": 1666,
      "iubirei": 1667,
      "zbura": 1668,
      "acela": 1669,
      "voioasă": 1670,
      "sfântă": 1671,
      "vreu": 1672,
      "nou": 1673,
      "iarba": 1674,
      "crudă": 1675,
      "singură": 1676,
      "amorul": 1677,
      "pustii": 1678,
      "ncetat": 1679,
      "Trece": 1680,
      "viitor": 1681,
      "zâmbind": 1682,
      "plăcere": 1683,
      "lucesc": 1684,
      "luceşte": 1685,
      "Fără": 1686,
      "avem": 1687,
      "deschis": 1688,
      "deschide": 1689,
      "afară": 1690,
      "malul": 1691,
      "lanţ": 1692,
      "călătoare": 1693,
      "schimb": 1694,
      "aurite": 1695,
      "fulger": 1696,
      "zâmbet": 1697,
      "Meka": 1698,
      "primăvară": 1699,
      "Mergi": 1700,
      "dreaptă": 1701,
      "Satan": 1702,
      "Doamne": 1703,
      "Mân": 1704,
      "Mare": 1705,
      "Pi": 1706,
      "Sau": 1707,
      "Toa": 1708,
      "Ur": 1709,
      "apri": 1710,
      "clă": 1711,
      "doa": 1712,
      "dalbe": 1713,
      "glo": 1714,
      "gână": 1715,
      "grele": 1716,
      "glori": 1717,
      "hot": 1718,
      "lune": 1719,
      "ona": 1720,
      "vom": 1721,
      "zmeu": 1722,
      "âmp": 1723,
      "împreună": 1724,
      "decât": 1725,
      "arc": 1726,
      "arma": 1727,
      "ardă": 1728,
      "închi": 1729,
      "rămâne": 1730,
      "cap": 1731,
      "săge": 1732,
      "mir": 1733,
      "ies": 1734,
      "urii": 1735,
      "şiră": 1736,
      "pără": 1737,
      "păduri": 1738,
      "genun": 1739,
      "cosi": 1740,
      "uimire": 1741,
      "rot": 1742,
      "pasă": 1743,
      "Cea": 1744,
      "zădar": 1745,
      "zeşte": 1746,
      "băla": 1747,
      "disp": 1748,
      "mâng": 1749,
      "mâni": 1750,
      "ochiu": 1751,
      "aler": 1752,
      "pove": 1753,
      "nainte": 1754,
      "totul": 1755,
      "ştii": 1756,
      "cântare": 1757,
      "tineri": 1758,
      "aceste": 1759,
      "suflete": 1760,
      "sfinte": 1761,
      "trimi": 1762,
      "copil": 1763,
      "Sim": 1764,
      "Două": 1765,
      "plecat": 1766,
      "III": 1767,
      "curge": 1768,
      "zilei": 1769,
      "izvoare": 1770,
      "mărire": 1771,
      "luminoasă": 1772,
      "duioasă": 1773,
      "drăgă": 1774,
      "soarte": 1775,
      "strânge": 1776,
      "vultur": 1777,
      "pasere": 1778,
      "întuneric": 1779,
      "somn": 1780,
      "Iubi": 1781,
      "scânteie": 1782,
      "Inima": 1783,
      "armonie": 1784,
      "?\"": 1785,
      "AL": 1786,
      "Ale": 1787,
      "Acolo": 1788,
      "Bi": 1789,
      "CO": 1790,
      "Mun": 1791,
      "Mând": 1792,
      "RA": 1793,
      "Spre": 1794,
      "TA": 1795,
      "asp": 1796,
      "dru": 1797,
      "hi": 1798,
      "hor": 1799,
      "icoa": 1800,
      "jalnic": 1801,
      "lţ": 1802,
      "line": 1803,
      "mna": 1804,
      "ome": 1805,
      "roi": 1806,
      "smă": 1807,
      "spă": 1808,
      "vro": 1809,
      "vină": 1810,
      "zace": 1811,
      "zon": 1812,
      "ștea": 1813,
      "știe": 1814,
      "rista": 1815,
      "demon": 1816,
      "celor": 1817,
      "arcă": 1818,
      "lege": 1819,
      "învie": 1820,
      "înainte": 1821,
      "pesc": 1822,
      "pept": 1823,
      "ţilor": 1824,
      "raza": 1825,
      "lată": 1826,
      "ândi": 1827,
      "iese": 1828,
      "ieşte": 1829,
      "căci": 1830,
      "lucind": 1831,
      "mama": 1832,
      "mamă": 1833,
      "mamei": 1834,
      "nete": 1835,
      "vește": 1836,
      "măi": 1837,
      "mării": 1838,
      "oarele": 1839,
      "zitoare": 1840,
      "reaţă": 1841,
      "ursi": 1842,
      "sple": 1843,
      "feme": 1844,
      "ferea": 1845,
      "mba": 1846,
      "paie": 1847,
      "ntin": 1848,
      "ntra": 1849,
      "cumpă": 1850,
      "ceasul": 1851,
      "zăreşte": 1852,
      "putea": 1853,
      "poveste": 1854,
      "suna": 1855,
      "sufla": 1856,
      "opreşte": 1857,
      "gan": 1858,
      "Lasă": 1859,
      "mândra": 1860,
      "florile": 1861,
      "râul": 1862,
      "râuri": 1863,
      "mort": 1864,
      "zarea": 1865,
      "braţul": 1866,
      "deasupra": 1867,
      "bură": 1868,
      "Vede": 1869,
      "plângă": 1870,
      "cald": 1871,
      "codru": 1872,
      "dureri": 1873,
      "cerului": 1874,
      "pusti": 1875,
      "adânci": 1876,
      "place": 1877,
      "Luce": 1878,
      "Lumea": 1879,
      "sfântul": 1880,
      "dragoste": 1881,
      "perde": 1882,
      "plutind": 1883,
      "nimica": 1884,
      "duios": 1885,
      "scântei": 1886,
      "ntunecată": 1887,
      "asculta": 1888,
      "tainică": 1889,
      "leagăn": 1890,
      "zâmbire": 1891,
      "cumpli": 1892,
      "Sufletul": 1893,
      "avut": 1894,
      "treacă": 1895,
      "mărgări": 1896,
      "atunce": 1897,
      "regină": 1898,
      "trecătoare": 1899,
      "fântână": 1900,
      "dumnezeiesc": 1901,
      "spaimă": 1902,
      "puternic": 1903,
      "Cor": 1904,
      "DO": 1905,
      "Ele": 1906,
      "Ful": 1907,
      "Ge": 1908,
      "Luna": 1909,
      "MĂ": 1910,
      "No": 1911,
      "PE": 1912,
      "RĂ": 1913,
      "ST": 1914,
      "TUL": 1915,
      "Umbra": 1916,
      "Vine": 1917,
      "Vai": 1918,
      "Vrei": 1919,
      "ae": 1920,
      "ades": 1921,
      "ble": 1922,
      "bind": 1923,
      "bog": 1924,
      "cle": 1925,
      "crin": 1926,
      "crai": 1927,
      "dai": 1928,
      "doarme": 1929,
      "gru": 1930,
      "gol": 1931,
      "hai": 1932,
      "jel": 1933,
      "lar": 1934,
      "nchi": 1935,
      "ndă": 1936,
      "ncântă": 1937,
      "nchină": 1938,
      "puri": 1939,
      "vână": 1940,
      "Îmi": 1941,
      "Ţi": 1942,
      "rist": 1943,
      "tește": 1944,
      "dez": 1945,
      "arte": 1946,
      "cute": 1947,
      "curând": 1948,
      "sesc": 1949,
      "seară": 1950,
      "alin": 1951,
      "rarea": 1952,
      "lac": 1953,
      "mirul": 1954,
      "cără": 1955,
      "căta": 1956,
      "stu": 1957,
      "nește": 1958,
      "neclinti": 1959,
      "nencetat": 1960,
      "veche": 1961,
      "inele": 1962,
      "stelu": 1963,
      "zidi": 1964,
      "tica": 1965,
      "geni": 1966,
      "vijel": 1967,
      "urme": 1968,
      "dură": 1969,
      "tremură": 1970,
      "scul": 1971,
      "rouă": 1972,
      "lip": 1973,
      "lipi": 1974,
      "ntâl": 1975,
      "unele": 1976,
      "prinde": 1977,
      "ceas": 1978,
      "arăta": 1979,
      "prie": 1980,
      "dia": 1981,
      "făcea": 1982,
      "bare": 1983,
      "adun": 1984,
      "cului": 1985,
      "pop": 1986,
      "iubito": 1987,
      "florilor": 1988,
      "frumoasa": 1989,
      "morţi": 1990,
      "draga": 1991,
      "vostru": 1992,
      "apro": 1993,
      "nouri": 1994,
      "durerea": 1995,
      "rânduri": 1996,
      "sărutat": 1997,
      "părţi": 1998,
      "fericit": 1999,
      "pline": 2000,
      "plini": 2001,
      "neagră": 2002,
      "zborul": 2003,
      "aprins": 2004,
      "blândă": 2005,
      "apei": 2006,
      "REA": 2007,
      "răspun": 2008,
      "răspunde": 2009,
      "ascult": 2010,
      "cuib": 2011,
      "schimbă": 2012,
      "câmpia": 2013,
      "stâncă": 2014,
      "cumplit": 2015,
      "grădină": 2016,
      "voastră": 2017,
      "libertate": 2018,
      "zăpadă": 2019,
      "Chiar": 2020,
      "înalţă": 2021,
      "zburând": 2022,
      "nălucire": 2023,
      "Codrul": 2024,
      "nemărginit": 2025,
      "Apa": 2026,
      "Bă": 2027,
      "CA": 2028,
      "Cân": 2029,
      "Dre": 2030,
      "Doi": 2031,
      "Dună": 2032,
      "Fi": 2033,
      "MÂN": 2034,
      "Pa": 2035,
      "Pur": 2036,
      "Până": 2037,
      "SE": 2038,
      "TI": 2039,
      "VI": 2040,
      "Vis": 2041,
      "aște": 2042,
      "asupra": 2043,
      "coasă": 2044,
      "crân": 2045,
      "galb": 2046,
      "har": 2047,
      "joc": 2048,
      "mâ": 2049,
      "nde": 2050,
      "nflori": 2051,
      "ngân": 2052,
      "nvâr": 2053,
      "ob": 2054,
      "pâ": 2055,
      "prun": 2056,
      "rini": 2057,
      "sol": 2058,
      "vră": 2059,
      "vad": 2060,
      "zut": 2061,
      "șop": 2062,
      "rel": 2063,
      "legi": 2064,
      "însu": 2065,
      "învin": 2066,
      "îndră": 2067,
      "oane": 2068,
      "oală": 2069,
      "cută": 2070,
      "tăin": 2071,
      "răst": 2072,
      "rămân": 2073,
      "capă": 2074,
      "caut": 2075,
      "ala": 2076,
      "alul": 2077,
      "sări": 2078,
      "săra": 2079,
      "sărma": 2080,
      "mij": 2081,
      "miste": 2082,
      "mize": 2083,
      "căr": 2084,
      "mată": 2085,
      "stul": 2086,
      "venea": 2087,
      "nită": 2088,
      "nime": 2089,
      "niţi": 2090,
      "măreaţă": 2091,
      "păgân": 2092,
      "steaua": 2093,
      "ziduri": 2094,
      "orizon": 2095,
      "vitea": 2096,
      "reamă": 2097,
      "coli": 2098,
      "comori": 2099,
      "urmează": 2100,
      "piatră": 2101,
      "ţări": 2102,
      "spu": 2103,
      "lăcrimioare": 2104,
      "liţă": 2105,
      "şter": 2106,
      "pată": 2107,
      "ntoarce": 2108,
      "fire": 2109,
      "prins": 2110,
      "zătoare": 2111,
      "faci": 2112,
      "puse": 2113,
      "văli": 2114,
      "văpaie": 2115,
      "adoarme": 2116,
      "cule": 2117,
      "omor": 2118,
      "creş": 2119,
      "frunzi": 2120,
      "frunza": 2121,
      "vieţi": 2122,
      "braţ": 2123,
      "voinic": 2124,
      "neguri": 2125,
      "copiii": 2126,
      "niciodată": 2127,
      "veseli": 2128,
      "Vec": 2129,
      "plângând": 2130,
      "Nimic": 2131,
      "luciul": 2132,
      "port": 2133,
      "îngerul": 2134,
      "rândunele": 2135,
      "nalt": 2136,
      "ninge": 2137,
      "vecini": 2138,
      "patri": 2139,
      "patru": 2140,
      "uşoară": 2141,
      "cunoa": 2142,
      "scump": 2143,
      "Colo": 2144,
      "așa": 2145,
      "perdu": 2146,
      "albastru": 2147,
      "isvor": 2148,
      "aveţi": 2149,
      "groza": 2150,
      "chează": 2151,
      "TEA": 2152,
      "ajunge": 2153,
      "creștet": 2154,
      "cloco": 2155,
      "trecutul": 2156,
      "voinice": 2157,
      "Văd": 2158,
      "cântând": 2159,
      "rătăci": 2160,
      "bolta": 2161,
      "Faţa": 2162,
      "amândoi": 2163,
      "acuma": 2164,
      "oprit": 2165,
      "cuvinte": 2166,
      "credinţă": 2167,
      "dispare": 2168,
      "Bu": 2169,
      "Bra": 2170,
      "CÂN": 2171,
      "Fie": 2172,
      "Face": 2173,
      "GE": 2174,
      "MA": 2175,
      "MI": 2176,
      "Oa": 2177,
      "PO": 2178,
      "RU": 2179,
      "Sf": 2180,
      "SĂ": 2181,
      "apare": 2182,
      "bor": 2183,
      "bată": 2184,
      "baltă": 2185,
      "coate": 2186,
      "cinte": 2187,
      "emirul": 2188,
      "hul": 2189,
      "ham": 2190,
      "iş": 2191,
      "ja": 2192,
      "joa": 2193,
      "nvie": 2194,
      "odo": 2195,
      "ptate": 2196,
      "salbă": 2197,
      "tini": 2198,
      "tran": 2199,
      "ută": 2200,
      "uci": 2201,
      "vâ": 2202,
      "vân": 2203,
      "îţi": 2204,
      "şoi": 2205,
      "ștri": 2206,
      "rește": 2207,
      "inţa": 2208,
      "deie": 2209,
      "despre": 2210,
      "ard": 2211,
      "armo": 2212,
      "lele": 2213,
      "închină": 2214,
      "răs": 2215,
      "răsare": 2216,
      "caii": 2217,
      "seme": 2218,
      "altul": 2219,
      "sto": 2220,
      "rut": 2221,
      "nite": 2222,
      "nice": 2223,
      "oarea": 2224,
      "zic": 2225,
      "sură": 2226,
      "supră": 2227,
      "tiţi": 2228,
      "gene": 2229,
      "coar": 2230,
      "ducă": 2231,
      "chii": 2232,
      "treci": 2233,
      "pică": 2234,
      "uite": 2235,
      "feţe": 2236,
      "mbră": 2237,
      "limpe": 2238,
      "Cel": 2239,
      "Călă": 2240,
      "zele": 2241,
      "sate": 2242,
      "lunge": 2243,
      "fărul": 2244,
      "mplu": 2245,
      "iubirea": 2246,
      "iubitoare": 2247,
      "suflare": 2248,
      "zboare": 2249,
      "zbori": 2250,
      "mintea": 2251,
      "întrea": 2252,
      "întins": 2253,
      "van": 2254,
      "ert": 2255,
      "voioase": 2256,
      "sfânta": 2257,
      "frumu": 2258,
      "triste": 2259,
      "brad": 2260,
      "braţele": 2261,
      "parcă": 2262,
      "muş": 2263,
      "stelele": 2264,
      "pietre": 2265,
      "verdea": 2266,
      "precum": 2267,
      "codrii": 2268,
      "grăbire": 2269,
      "sărut": 2270,
      "nalte": 2271,
      "Păn": 2272,
      "lumini": 2273,
      "pală": 2274,
      "norocul": 2275,
      "neagra": 2276,
      "dânșii": 2277,
      "fraţi": 2278,
      "frage": 2279,
      "nopţei": 2280,
      "Trec": 2281,
      "margine": 2282,
      "potop": 2283,
      "sosit": 2284,
      "jăle": 2285,
      "jăli": 2286,
      "Răsp": 2287,
      "prag": 2288,
      "pradă": 2289,
      "oglin": 2290,
      "duioase": 2291,
      "soartă": 2292,
      "Privi": 2293,
      "cobor": 2294,
      "haină": 2295,
      "argintie": 2296,
      "munţilor": 2297,
      "valul": 2298,
      "Drago": 2299,
      "pierdu": 2300,
      "ORUL": 2301,
      "zâmbeşte": 2302,
      "troie": 2303,
      "dismierda": 2304,
      "somnul": 2305,
      "clopot": 2306,
      "ascund": 2307,
      "sălba": 2308,
      "cântec": 2309,
      "crean": 2310,
      "luceafăr": 2311,
      "duşmani": 2312,
      "sunet": 2313,
      "timpul": 2314,
      "nemurire": 2315,
      "vitej": 2316,
      "atâta": 2317,
      "flăcări": 2318,
      "vuiet": 2319,
      "Toată": 2320,
      "rotun": 2321,
      "bogat": 2322,
      "vijelie": 2323,
      "apropie": 2324,
      "Vecinic": 2325,
      "Ad": 2326,
      "Acea": 2327,
      "Abia": 2328,
      "Bine": 2329,
      "Cur": 2330,
      "Este": 2331,
      "Eşti": 2332,
      "Gla": 2333,
      "Ie": 2334,
      "In": 2335,
      "Mo": 2336,
      "Mur": 2337,
      "NE": 2338,
      "PĂ": 2339,
      "Plu": 2340,
      "RUL": 2341,
      "SC": 2342,
      "Sân": 2343,
      "Stele": 2344,
      "Tră": 2345,
      "Trei": 2346,
      "Vor": 2347,
      "ain": 2348,
      "amă": 2349,
      "aţă": 2350,
      "apu": 2351,
      "aos": 2352,
      "apus": 2353,
      "cră": 2354,
      "cină": 2355,
      "dro": 2356,
      "flo": 2357,
      "freamă": 2358,
      "gal": 2359,
      "goi": 2360,
      "ici": 2361,
      "lunei": 2362,
      "mind": 2363,
      "moară": 2364,
      "moale": 2365,
      "nuri": 2366,
      "of": 2367,
      "oş": 2368,
      "ouă": 2369,
      "pând": 2370,
      "rar": 2371,
      "târ": 2372,
      "vra": 2373,
      "Şe": 2374,
      "Şte": 2375,
      "şuie": 2376,
      "ŢI": 2377,
      "șă": 2378,
      "șul": 2379,
      "tec": 2380,
      "dege": 2381,
      "cerea": 2382,
      "oană": 2383,
      "oaia": 2384,
      "cuge": 2385,
      "pezi": 2386,
      "cadă": 2387,
      "sei": 2388,
      "sete": 2389,
      "alină": 2390,
      "sărind": 2391,
      "tau": 2392,
      "taţi": 2393,
      "tasă": 2394,
      "taie": 2395,
      "mila": 2396,
      "milă": 2397,
      "cite": 2398,
      "căzut": 2399,
      "mat": 2400,
      "mate": 2401,
      "masă": 2402,
      "stori": 2403,
      "necunos": 2404,
      "vesc": 2405,
      "nia": 2406,
      "nire": 2407,
      "chaos": 2408,
      "părin": 2409,
      "zicea": 2410,
      "sui": 2411,
      "surâ": 2412,
      "oricare": 2413,
      "tit": 2414,
      "timi": 2415,
      "tişor": 2416,
      "geam": 2417,
      "genele": 2418,
      "cos": 2419,
      "urgie": 2420,
      "scoate": 2421,
      "atinge": 2422,
      "iniţă": 2423,
      "bită": 2424,
      "spa": 2425,
      "uitat": 2426,
      "uimit": 2427,
      "femei": 2428,
      "liţa": 2429,
      "sită": 2430,
      "sicri": 2431,
      "fir": 2432,
      "tutur": 2433,
      "prind": 2434,
      "bei": 2435,
      "arăţi": 2436,
      "fata": 2437,
      "lunca": 2438,
      "dio": 2439,
      "ească": 2440,
      "năl": 2441,
      "tului": 2442,
      "ţeşte": 2443,
      "zbură": 2444,
      "mântui": 2445,
      "totu": 2446,
      "ştire": 2447,
      "cântic": 2448,
      "gându": 2449,
      "vadă": 2450,
      "știi": 2451,
      "sfinţi": 2452,
      "glasu": 2453,
      "negrul": 2454,
      "copile": 2455,
      "copilul": 2456,
      "vred": 2457,
      "buie": 2458,
      "trăs": 2459,
      "Vese": 2460,
      "fugi": 2461,
      "plângi": 2462,
      "munţii": 2463,
      "oasele": 2464,
      "Alune": 2465,
      "calcă": 2466,
      "porţi": 2467,
      "iarbă": 2468,
      "cântări": 2469,
      "falni": 2470,
      "vindu": 2471,
      "singuri": 2472,
      "fundul": 2473,
      "albastră": 2474,
      "albastre": 2475,
      "umeri": 2476,
      "toamnă": 2477,
      "plăceri": 2478,
      "pătruns": 2479,
      "blânda": 2480,
      "Făr": 2481,
      "alături": 2482,
      "poarta": 2483,
      "grabă": 2484,
      "gingaşă": 2485,
      "soarta": 2486,
      "priveşte": 2487,
      "norii": 2488,
      "âlp": 2489,
      "români": 2490,
      "aripioare": 2491,
      "cuprins": 2492,
      "bătrânul": 2493,
      "gândire": 2494,
      "aurit": 2495,
      "Dragă": 2496,
      "scutură": 2497,
      "pierdut": 2498,
      "liniști": 2499,
      "frăţioare": 2500,
      "purtând": 2501,
      "deşteaptă": 2502,
      "altar": 2503,
      "paserea": 2504,
      "zâmbitoare": 2505,
      "crunt": 2506,
      "surori": 2507,
      "cerescul": 2508,
      "Fug": 2509,
      "răcori": 2510,
      "măreţ": 2511,
      "păsărele": 2512,
      "atuncea": 2513,
      "Zbori": 2514,
      "fluturi": 2515,
      "grijă": 2516,
      "mişcare": 2517,
      "ţărmuri": 2518,
      "zăpada": 2519,
      "sfârşit": 2520,
      "Moldova": 2521,
      "Pust": 2522,
      "război": 2523,
      "parfum": 2524,
      "palid": 2525,
      "senină": 2526,
      "suntem": 2527,
      "subţire": 2528,
      "giuru": 2529,
      "galben": 2530,
      "trestii": 2531,
      "mângâie": 2532,
      "drăgăla": 2533,
      "fereastră": 2534,
      "bleste": 2535,
      "popoare": 2536,
      "Amând": 2537,
      "And": 2538,
      "Cre": 2539,
      "Dă": 2540,
      "Doar": 2541,
      "IV": 2542,
      "Inimi": 2543,
      "LO": 2544,
      "LUI": 2545,
      "Mad": 2546,
      "NOA": 2547,
      "Omul": 2548,
      "Pat": 2549,
      "Pleacă": 2550,
      "Râ": 2551,
      "Rai": 2552,
      "Una": 2553,
      "URI": 2554,
      "Vul": 2555,
      "Vom": 2556,
      "Zâ": 2557,
      "ava": 2558,
      "anul": 2559,
      "asupră": 2560,
      "bori": 2561,
      "bune": 2562,
      "brâu": 2563,
      "cară": 2564,
      "doar": 2565,
      "grai": 2566,
      "horă": 2567,
      "jert": 2568,
      "lie": 2569,
      "nţ": 2570,
      "nch": 2571,
      "ote": 2572,
      "oși": 2573,
      "ocea": 2574,
      "oda": 2575,
      "odor": 2576,
      "orele": 2577,
      "pară": 2578,
      "plo": 2579,
      "roase": 2580,
      "sine": 2581,
      "sfe": 2582,
      "smul": 2583,
      "scur": 2584,
      "tună": 2585,
      "usca": 2586,
      "Îşi": 2587,
      "ĂT": 2588,
      "ŞI": 2589,
      "revarsă": 2590,
      "inti": 2591,
      "risi": 2592,
      "unda": 2593,
      "ceară": 2594,
      "cerească": 2595,
      "înă": 2596,
      "întor": 2597,
      "îngro": 2598,
      "îngână": 2599,
      "cufun": 2600,
      "răt": 2601,
      "răz": 2602,
      "cari": 2603,
      "sele": 2604,
      "seori": 2605,
      "semne": 2606,
      "ţită": 2607,
      "lau": 2608,
      "lacul": 2609,
      "lacri": 2610,
      "lacuri": 2611,
      "tace": 2612,
      "miros": 2613,
      "iere": 2614,
      "ieşit": 2615,
      "călare": 2616,
      "cărui": 2617,
      "stând": 2618,
      "stâr": 2619,
      "nechează": 2620,
      "veri": 2621,
      "veţi": 2622,
      "inei": 2623,
      "pădure": 2624,
      "ziu": 2625,
      "geri": 2626,
      "vită": 2627,
      "vije": 2628,
      "coi": 2629,
      "cole": 2630,
      "covor": 2631,
      "contra": 2632,
      "găsit": 2633,
      "biru": 2634,
      "Înce": 2635,
      "...--": 2636,
      "spus": 2637,
      "robie": 2638,
      "lăsat": 2639,
      "mbe": 2640,
      "mbrul": 2641,
      "liră": 2642,
      "paţi": 2643,
      "patimi": 2644,
      "ntine": 2645,
      "firi": 2646,
      "fiară": 2647,
      "Cer": 2648,
      "Cătră": 2649,
      "ceaţă": 2650,
      "zărit": 2651,
      "bătând": 2652,
      "pribea": 2653,
      "put": 2654,
      "gigan": 2655,
      "dioasă": 2656,
      "ează": 2657,
      "făcli": 2658,
      "mpul": 2659,
      "mple": 2660,
      "culce": 2661,
      "culme": 2662,
      "tulbu": 2663,
      "mântul": 2664,
      "străină": 2665,
      "dormi": 2666,
      "cresc": 2667,
      "crist": 2668,
      "mândri": 2669,
      "mândrie": 2670,
      "râzând": 2671,
      "cercuri": 2672,
      "Dintr": 2673,
      "frumoşi": 2674,
      "trista": 2675,
      "trium": 2676,
      "zac": 2677,
      "nicio": 2678,
      "vremi": 2679,
      "apune": 2680,
      "buci": 2681,
      "desfă": 2682,
      "Duce": 2683,
      "pieptul": 2684,
      "trăie": 2685,
      "scăl": 2686,
      "tovară": 2687,
      "turbare": 2688,
      "cereşti": 2689,
      "iarnă": 2690,
      "iarna": 2691,
      "Părul": 2692,
      "fier": 2693,
      "crude": 2694,
      "cruci": 2695,
      "menit": 2696,
      "valurile": 2697,
      "ploaie": 2698,
      "pustiu": 2699,
      "Lumin": 2700,
      "uşoare": 2701,
      "cunună": 2702,
      "mpărat": 2703,
      "fundă": 2704,
      "luminos": 2705,
      "întregi": 2706,
      "jalea": 2707,
      "stic": 2708,
      "gândesc": 2709,
      "juru": 2710,
      "Roma": 2711,
      "Florii": 2712,
      "Florile": 2713,
      "Floriile": 2714,
      "colţ": 2715,
      "române": 2716,
      "poezie": 2717,
      "asculte": 2718,
      "ascultă": 2719,
      "cuibul": 2720,
      "bătrâne": 2721,
      "află": 2722,
      "domn": 2723,
      "strigă": 2724,
      "sufletului": 2725,
      "ferme": 2726,
      "ajuns": 2727,
      "Visul": 2728,
      "scutu": 2729,
      "Bag": 2730,
      "Bate": 2731,
      "Mărioară": 2732,
      "iarăși": 2733,
      "răpide": 2734,
      "purtat": 2735,
      "dismierdă": 2736,
      "apasă": 2737,
      "Mama": 2738,
      "flacă": 2739,
      "împle": 2740,
      "Sufletu": 2741,
      "INE": 2742,
      "Orice": 2743,
      "renvie": 2744,
      "visează": 2745,
      "slăvit": 2746,
      "grădini": 2747,
      "vărsat": 2748,
      "strălucită": 2749,
      "sorioară": 2750,
      "înflorită": 2751,
      "măreţe": 2752,
      "Ferice": 2753,
      "Fericit": 2754,
      "voastre": 2755,
      "tremurând": 2756,
      "scris": 2757,
      "flutur": 2758,
      "amândouă": 2759,
      "ngrozitoare": 2760,
      "neamul": 2761,
      "Veneţia": 2762,
      "acope": 2763,
      "sunteţi": 2764,
      "mângăi": 2765,
      "alungă": 2766,
      "același": 2767,
      "cosiţă": 2768,
      "povești": 2769,
      "Munţii": 2770,
      "femeie": 2771,
      "suflarea": 2772,
      "verdeaţă": 2773,
      "freamăt": 2774,
      "Ştefan": 2775,
      "Amândoi": 2776,
      "NOAP": 2777,
      "AD": 2778,
      "Ascul": 2779,
      "Adio": 2780,
      "BA": 2781,
      "Bos": 2782,
      "CI": 2783,
      "CU": 2784,
      "Car": 2785,
      "Clo": 2786,
      "Crist": 2787,
      "Fo": 2788,
      "GO": 2789,
      "GĂ": 2790,
      "IE": 2791,
      "Iz": 2792,
      "ME": 2793,
      "Mie": 2794,
      "PA": 2795,
      "Prea": 2796,
      "Plin": 2797,
      "Ra": 2798,
      "SI": 2799,
      "STE": 2800,
      "Tur": 2801,
      "Vre": 2802,
      "Vină": 2803,
      "Ziu": 2804,
      "anin": 2805,
      "aduci": 2806,
      "boi": 2807,
      "cro": 2808,
      "clea": 2809,
      "cinta": 2810,
      "crini": 2811,
      "dalbă": 2812,
      "ece": 2813,
      "grea": 2814,
      "gale": 2815,
      "il": 2816,
      "im": 2817,
      "ire": 2818,
      "iţi": 2819,
      "idi": 2820,
      "ivit": 2821,
      "istori": 2822,
      "june": 2823,
      "loa": 2824,
      "ncă": 2825,
      "nată": 2826,
      "ncre": 2827,
      "nchin": 2828,
      "ore": 2829,
      "ptat": 2830,
      "rtu": 2831,
      "sce": 2832,
      "sara": 2833,
      "scaldă": 2834,
      "umăr": 2835,
      "vrun": 2836,
      "zmei": 2837,
      "Îl": 2838,
      "îmbă": 2839,
      "Şop": 2840,
      "șnea": 2841,
      "reşti": 2842,
      "teau": 2843,
      "telor": 2844,
      "del": 2845,
      "deș": 2846,
      "desi": 2847,
      "descân": 2848,
      "ceşte": 2849,
      "lelor": 2850,
      "lebă": 2851,
      "înfo": 2852,
      "încre": 2853,
      "îngân": 2854,
      "caţi": 2855,
      "caste": 2856,
      "capu": 2857,
      "carii": 2858,
      "cavale": 2859,
      "seri": 2860,
      "alti": 2861,
      "alţii": 2862,
      "ţit": 2863,
      "sărea": 2864,
      "lanul": 2865,
      "mist": 2866,
      "miardă": 2867,
      "ânduri": 2868,
      "ândind": 2869,
      "iene": 2870,
      "căpri": 2871,
      "cărarea": 2872,
      "lupt": 2873,
      "lupta": 2874,
      "mase": 2875,
      "madă": 2876,
      "stro": 2877,
      "stind": 2878,
      "strul": 2879,
      "neche": 2880,
      "ruga": 2881,
      "rupt": 2882,
      "vene": 2883,
      "verii": 2884,
      "veghea": 2885,
      "urie": 2886,
      "nisi": 2887,
      "niţa": 2888,
      "mănă": 2889,
      "păn": 2890,
      "păst": 2891,
      "șit": 2892,
      "ziuă": 2893,
      "orie": 2894,
      "oricine": 2895,
      "tice": 2896,
      "ticul": 2897,
      "gem": 2898,
      "dup": 2899,
      "duse": 2900,
      "durea": 2901,
      "trezi": 2902,
      "tresare": 2903,
      "atin": 2904,
      "găl": 2905,
      "piatra": 2906,
      "Per": 2907,
      "bil": 2908,
      "ţărân": 2909,
      "Însă": 2910,
      "Încât": 2911,
      "Înşiră": 2912,
      "spun": 2913,
      "spate": 2914,
      "uia": 2915,
      "amnă": 2916,
      "ferin": 2917,
      "roșii": 2918,
      "lio": 2919,
      "pasul": 2920,
      "ntor": 2921,
      "Cade": 2922,
      "fim": 2923,
      "fiu": 2924,
      "teamă": 2925,
      "teaptă": 2926,
      "zări": 2927,
      "zei": 2928,
      "zeu": 2929,
      "zece": 2930,
      "zeci": 2931,
      "zește": 2932,
      "facă": 2933,
      "văl": 2934,
      "giul": 2935,
      "loca": 2936,
      "făcu": 2937,
      "osta": 2938,
      "baţi": 2939,
      "nălu": 2940,
      "născut": 2941,
      "pod": 2942,
      "oaptă": 2943,
      "sunând": 2944,
      "nain": 2945,
      "naște": 2946,
      "dadul": 2947,
      "întind": 2948,
      "întâmp": 2949,
      "întrista": 2950,
      "doru": 2951,
      "doruri": 2952,
      "gândă": 2953,
      "gare": 2954,
      "vas": 2955,
      "crivă": 2956,
      "stat": 2957,
      "iască": 2958,
      "vorbi": 2959,
      "vorbă": 2960,
      "copiliţă": 2961,
      "vrem": 2962,
      "dează": 2963,
      "mută": 2964,
      "visat": 2965,
      "gina": 2966,
      "pieptu": 2967,
      "aramă": 2968,
      "versul": 2969,
      "Veni": 2970,
      "fuge": 2971,
      "toţii": 2972,
      "Alte": 2973,
      "Alham": 2974,
      "porti": 2975,
      "îngeri": 2976,
      "îngerii": 2977,
      "îngeresc": 2978,
      "dureros": 2979,
      "Doina": 2980,
      "aripe": 2981,
      "guliţă": 2982,
      "naltă": 2983,
      "Părea": 2984,
      "plec": 2985,
      "unate": 2986,
      "ritar": 2987,
      "singura": 2988,
      "albăst": 2989,
      "pustiei": 2990,
      "murgul": 2991,
      "moş": 2992,
      "movi": 2993,
      "mohor": 2994,
      "marmura": 2995,
      "pulbe": 2996,
      "mărilor": 2997,
      "așază": 2998,
      "așteaptă": 2999,
      "eram": 3000,
      "erau": 3001,
      "perd": 3002,
      "vedeţi": 3003,
      "plug": 3004,
      "vârf": 3005,
      "pătrund": 3006,
      "pătrunsă": 3007,
      "mpregiuru": 3008,
      "isvoare": 3009,
      "iernii": 3010,
      "REI": 3011,
      "soartei": 3012,
      "depărtat": 3013,
      "untru": 3014,
      "ntunecoasă": 3015,
      "poet": 3016,
      "cuprinde": 3017,
      "iubeşte": 3018,
      "hame": 3019,
      "haina": 3020,
      "călător": 3021,
      "ntreabă": 3022,
      "gândit": 3023,
      "gândirea": 3024,
      "Dragul": 3025,
      "picior": 3026,
      "şepte": 3027,
      "................................................................": 3028,
      "Dulci": 3029,
      "Dorul": 3030,
      "veciniciei": 3031,
      "tindu": 3032,
      "paseri": 3033,
      "sarai": 3034,
      "flamuri": 3035,
      "Văr": 3036,
      "natura": 3037,
      "poia": 3038,
      "rătăcit": 3039,
      "aştept": 3040,
      "aşteaptă": 3041,
      "mărgăritar": 3042,
      "Stai": 3043,
      "Stau": 3044,
      "frică": 3045,
      "răcoare": 3046,
      "fecioară": 3047,
      "văzduhul": 3048,
      "zâniş": 3049,
      "poporul": 3050,
      "furtună": 3051,
      "ușor": 3052,
      "părere": 3053,
      "ţărm": 3054,
      "barba": 3055,
      "ureche": 3056,
      "clie": 3057,
      "ciocâr": 3058,
      "primblă": 3059,
      "dimineţii": 3060,
      "gâtul": 3061,
      "Românie": 3062,
      "Frumoasă": 3063,
      "mireasă": 3064,
      "mângăiere": 3065,
      "gondolă": 3066,
      "slabă": 3067,
      "singurătate": 3068,
      "glon": 3069,
      "hotar": 3070,
      "săgeată": 3071,
      "genunchi": 3072,
      "bălaie": 3073,
      "drumul": 3074,
      "mărgărite": 3075,
      "Fulge": 3076,
      "cărări": 3077,
      "Drept": 3078,
      "mâh": 3079,
      "pârău": 3080,
      "mijloc": 3081,
      "viteaz": 3082,
      "cunoaște": 3083,
      "clocoteşte": 3084,
      "joacă": 3085,
      "vâj": 3086,
      "frumuse": 3087,
      "marginea": 3088,
      "Dragoş": 3089,
      "troieni": 3090,
      "târziu": 3091,
      "sicriu": 3092,
      "Andrii": 3093,
      "trăieşti": 3094,
      "Bagdadul": 3095,
      "Fost": 3096,
      "Ziua": 3097,
      "Alhambra": 3098,
      "AM": 3099,
      "Av": 3100,
      "Aș": 3101,
      "Apu": 3102,
      "Astă": 3103,
      "Aduce": 3104,
      "Alei": 3105,
      "BI": 3106,
      "Cai": 3107,
      "Cind": 3108,
      "Cren": 3109,
      "Cânta": 3110,
      "Dui": 3111,
      "Dară": 3112,
      "Fl": 3113,
      "Flu": 3114,
      "Fii": 3115,
      "Focul": 3116,
      "Gon": 3117,
      "IA": 3118,
      "Ital": 3119,
      "Lina": 3120,
      "LOR": 3121,
      "MO": 3122,
      "Mor": 3123,
      "Mari": 3124,
      "NA": 3125,
      "Nor": 3126,
      "Pro": 3127,
      "Plă": 3128,
      "Pari": 3129,
      "Ste": 3130,
      "Suri": 3131,
      "Sai": 3132,
      "Stăi": 3133,
      "Scumpă": 3134,
      "TĂ": 3135,
      "Tra": 3136,
      "Tână": 3137,
      "Ura": 3138,
      "Vo": 3139,
      "ZI": 3140,
      "Zadar": 3141,
      "ab": 3142,
      "ah": 3143,
      "asa": 3144,
      "abate": 3145,
      "broa": 3146,
      "cin": 3147,
      "coare": 3148,
      "dine": 3149,
      "fră": 3150,
      "gat": 3151,
      "grâu": 3152,
      "goale": 3153,
      "ioară": 3154,
      "lot": 3155,
      "mlă": 3156,
      "mpa": 3157,
      "nvă": 3158,
      "nfo": 3159,
      "nche": 3160,
      "ncor": 3161,
      "ose": 3162,
      "oşte": 3163,
      "odi": 3164,
      "oţe": 3165,
      "obo": 3166,
      "rn": 3167,
      "roasă": 3168,
      "tân": 3169,
      "tune": 3170,
      "trat": 3171,
      "toarce": 3172,
      "usu": 3173,
      "urat": 3174,
      "zind": 3175,
      "Îţi": 3176,
      "Își": 3177,
      "âtă": 3178,
      "şori": 3179,
      "şind": 3180,
      "şorii": 3181,
      "șor": 3182,
      "repa": 3183,
      "rebe": 3184,
      "repezi": 3185,
      "regina": 3186,
      "insul": 3187,
      "inje": 3188,
      "rivă": 3189,
      "rios": 3190,
      "tej": 3191,
      "dei": 3192,
      "deau": 3193,
      "dedi": 3194,
      "deop": 3195,
      "desprin": 3196,
      "ceru": 3197,
      "arg": 3198,
      "lene": 3199,
      "înfi": 3200,
      "închin": 3201,
      "înghe": 3202,
      "înarma": 3203,
      "înflo": 3204,
      "oaste": 3205,
      "oaspe": 3206,
      "curate": 3207,
      "curată": 3208,
      "tăm": 3209,
      "tărie": 3210,
      "tăţei": 3211,
      "pet": 3212,
      "pete": 3213,
      "pede": 3214,
      "perit": 3215,
      "peptul": 3216,
      "peliţa": 3217,
      "casa": 3218,
      "sem": 3219,
      "serii": 3220,
      "albine": 3221,
      "rau": 3222,
      "rami": 3223,
      "rană": 3224,
      "late": 3225,
      "laturi": 3226,
      "tanul": 3227,
      "taina": 3228,
      "mită": 3229,
      "ciri": 3230,
      "cită": 3231,
      "ciuni": 3232,
      "căi": 3233,
      "cărare": 3234,
      "căzu": 3235,
      "luc": 3236,
      "lupii": 3237,
      "maţi": 3238,
      "magh": 3239,
      "strâ": 3240,
      "nebun": 3241,
      "rume": 3242,
      "venin": 3243,
      "pădurea": 3244,
      "șiruri": 3245,
      "zid": 3246,
      "suie": 3247,
      "tire": 3248,
      "tiri": 3249,
      "vire": 3250,
      "coco": 3251,
      "copa": 3252,
      "cofi": 3253,
      "urcă": 3254,
      "duș": 3255,
      "ducând": 3256,
      "chipul": 3257,
      "trecând": 3258,
      "trezea": 3259,
      "trebuie": 3260,
      "scoală": 3261,
      "Departe": 3262,
      "Deasupra": 3263,
      "atul": 3264,
      "atâr": 3265,
      "inimei": 3266,
      "găsi": 3267,
      "gătoare": 3268,
      "numa": 3269,
      "număr": 3270,
      "pită": 3271,
      "piţi": 3272,
      "pita": 3273,
      "oarnă": 3274,
      "spin": 3275,
      "spar": 3276,
      "spui": 3277,
      "spada": 3278,
      "uiţi": 3279,
      "amară": 3280,
      "aminti": 3281,
      "fee": 3282,
      "roş": 3283,
      "roti": 3284,
      "rodi": 3285,
      "rochii": 3286,
      "lău": 3287,
      "mbru": 3288,
      "lite": 3289,
      "limbi": 3290,
      "limba": 3291,
      "pasuri": 3292,
      "sire": 3293,
      "Cerul": 3294,
      "prindă": 3295,
      "zărea": 3296,
      "zent": 3297,
      "beşte": 3298,
      "indă": 3299,
      "bădi": 3300,
      "bătut": 3301,
      "fană": 3302,
      "puş": 3303,
      "pururi": 3304,
      "puţin": 3305,
      "eii": 3306,
      "vălul": 3307,
      "git": 3308,
      "dăm": 3309,
      "mânile": 3310,
      "ochilor": 3311,
      "basme": 3312,
      "admi": 3313,
      "aduni": 3314,
      "năfra": 3315,
      "alene": 3316,
      "pote": 3317,
      "sulcină": 3318,
      "străine": 3319,
      "minuni": 3320,
      "Unul": 3321,
      "daţi": 3322,
      "întoarce": 3323,
      "crezi": 3324,
      "vază": 3325,
      "Iarba": 3326,
      "subli": 3327,
      "cerca": 3328,
      "vânturi": 3329,
      "iază": 3330,
      "pământului": 3331,
      "copite": 3332,
      "vreo": 3333,
      "deasă": 3334,
      "muș": 3335,
      "desface": 3336,
      "visând": 3337,
      "ghie": 3338,
      "veselă": 3339,
      "fugă": 3340,
      "plâns": 3341,
      "muncă": 3342,
      "Nime": 3343,
      "luciu": 3344,
      "lucitoare": 3345,
      "olaltă": 3346,
      "Altul": 3347,
      "albele": 3348,
      "poru": 3349,
      "prezent": 3350,
      "grămă": 3351,
      "grămadă": 3352,
      "moartă": 3353,
      "săruta": 3354,
      "Pătrun": 3355,
      "pleca": 3356,
      "fericită": 3357,
      "astea": 3358,
      "vecine": 3359,
      "gurii": 3360,
      "sting": 3361,
      "coroană": 3362,
      "ploaia": 3363,
      "noro": 3364,
      "murmur": 3365,
      "nească": 3366,
      "Lăsând": 3367,
      "patul": 3368,
      "Lucea": 3369,
      "nopţi": 3370,
      "curg": 3371,
      "privirea": 3372,
      "privighie": 3373,
      "Trecu": 3374,
      "Trecut": 3375,
      "marmură": 3376,
      "teiul": 3377,
      "simţiri": 3378,
      "simţitor": 3379,
      "cununi": 3380,
      "socoate": 3381,
      "ndată": 3382,
      "ndoaie": 3383,
      "așe": 3384,
      "drago": 3385,
      "întreg": 3386,
      "aprinse": 3387,
      "pluteşte": 3388,
      "umezi": 3389,
      "gânde": 3390,
      "valea": 3391,
      "luceferi": 3392,
      "clipe": 3393,
      "clipa": 3394,
      "dreptate": 3395,
      "miere": 3396,
      "Romei": 3397,
      "mormântul": 3398,
      "Florioară": 3399,
      "gingaşa": 3400,
      "averea": 3401,
      "merg": 3402,
      "privește": 3403,
      "scade": 3404,
      "răspân": 3405,
      "colb": 3406,
      "domnul": 3407,
      "haine": 3408,
      "Zice": 3409,
      "ajung": 3410,
      "biata": 3411,
      "propri": 3412,
      "pierde": 3413,
      "suspinând": 3414,
      "Lege": 3415,
      "şeşte": 3416,
      "Dormi": 3417,
      "Lâng": 3418,
      "vulturi": 3419,
      "frăţire": 3420,
      "frăţior": 3421,
      "nunta": 3422,
      "purta": 3423,
      "tainice": 3424,
      "tinereţii": 3425,
      "tinereţe": 3426,
      "stânci": 3427,
      "regele": 3428,
      "cruntă": 3429,
      "plaiul": 3430,
      "Câmpul": 3431,
      "șede": 3432,
      "trecute": 3433,
      "biet": 3434,
      "treabă": 3435,
      "şoru": 3436,
      "inspi": 3437,
      "sălta": 3438,
      "luminează": 3439,
      "adevă": 3440,
      "adeseori": 3441,
      "hotare": 3442,
      "păsări": 3443,
      "stăpâni": 3444,
      "carte": 3445,
      "dreapta": 3446,
      "zâne": 3447,
      "ţinea": 3448,
      "luceafărul": 3449,
      "frunzele": 3450,
      "scânteiază": 3451,
      "Uite": 3452,
      "împărat": 3453,
      "şopteşte": 3454,
      "seamă": 3455,
      "mişcă": 3456,
      "Eram": 3457,
      "atâtea": 3458,
      "eterne": 3459,
      "dimineaţă": 3460,
      "azvâr": 3461,
      "balaur": 3462,
      "încântătoare": 3463,
      "fantasmă": 3464,
      "frânge": 3465,
      "mireasa": 3466,
      "Singur": 3467,
      "dorit": 3468,
      "şerpi": 3469,
      "suvenir": 3470,
      "lanţuri": 3471,
      "aprig": 3472,
      "glorie": 3473,
      "bălai": 3474,
      "alergi": 3475,
      "trimiţi": 3476,
      "vulturul": 3477,
      "Bion": 3478,
      "Mândrul": 3479,
      "spăi": 3480,
      "splend": 3481,
      "pustiuri": 3482,
      "mărgăritare": 3483,
      "aeru": 3484,
      "geniu": 3485,
      "Bătrân": 3486,
      "Dunărea": 3487,
      "galbin": 3488,
      "șoptește": 3489,
      "sărac": 3490,
      "creştine": 3491,
      "vecinică": 3492,
      "patriei": 3493,
      "perdute": 3494,
      "CÂNTI": 3495,
      "Oameni": 3496,
      "tranda": 3497,
      "coarne": 3498,
      "muşcă": 3499,
      "Privirea": 3500,
      "creangă": 3501,
      "vitejii": 3502,
      "rotund": 3503,
      "Glasul": 3504,
      "Stelele": 3505,
      "aintea": 3506,
      "necunoscute": 3507,
      "geamuri": 3508,
      "sfinţit": 3509,
      "drăgălaşă": 3510,
      "ocean": 3511,
      "odaie": 3512,
      "biruinţă": 3513,
      "pribeag": 3514,
      "făclii": 3515,
      "bucium": 3516,
      "Lumina": 3517,
      "NOAPTEA": 3518,
      "Bosfor": 3519,
      "Veniti": 3520,
      "hamed": 3521,
      "zânişoară": 3522,
      "Crengi": 3523,
      "Gondo": 3524,
      "Zadarnic": 3525,
      "repaos": 3526,
      "!”": 3527,
      "Aş": 3528,
      "Ade": 3529,
      "Aţi": 3530,
      "Arun": 3531,
      "Bar": 3532,
      "Boi": 3533,
      "Blând": 3534,
      "Crai": 3535,
      "Calul": 3536,
      "DA": 3537,
      "Dri": 3538,
      "Dră": 3539,
      "DIN": 3540,
      "Gin": 3541,
      "Gră": 3542,
      "Glas": 3543,
      "Ia": 3544,
      "Ici": 3545,
      "Jos": 3546,
      "LU": 3547,
      "Moar": 3548,
      "Nă": 3549,
      "Nea": 3550,
      "Niniţă": 3551,
      "PI": 3552,
      "Par": 3553,
      "Pal": 3554,
      "Poar": 3555,
      "Pune": 3556,
      "Parcă": 3557,
      "RII": 3558,
      "Ridi": 3559,
      "SF": 3560,
      "Scum": 3561,
      "Stri": 3562,
      "Soarele": 3563,
      "Tru": 3564,
      "TRE": 3565,
      "Vie": 3566,
      "Vei": 3567,
      "Zbu": 3568,
      "Zis": 3569,
      "Zbură": 3570,
      "adus": 3571,
      "ageri": 3572,
      "asfinţit": 3573,
      "bră": 3574,
      "bini": 3575,
      "blă": 3576,
      "cti": 3577,
      "ctor": 3578,
      "dri": 3579,
      "dun": 3580,
      "dând": 3581,
      "dur": 3582,
      "eţi": 3583,
      "erai": 3584,
      "foa": 3585,
      "fini": 3586,
      "fui": 3587,
      "fară": 3588,
      "grin": 3589,
      "grie": 3590,
      "hu": 3591,
      "hră": 3592,
      "hâr": 3593,
      "hora": 3594,
      "it": 3595,
      "ivea": 3596,
      "imn": 3597,
      "jună": 3598,
      "jocul": 3599,
      "lnic": 3600,
      "largă": 3601,
      "nte": 3602,
      "ntă": 3603,
      "nci": 3604,
      "nţa": 3605,
      "nvese": 3606,
      "nvin": 3607,
      "ncun": 3608,
      "ngână": 3609,
      "one": 3610,
      "odin": 3611,
      "obraz": 3612,
      "ptată": 3613,
      "pându": 3614,
      "poale": 3615,
      "pciune": 3616,
      "rlan": 3617,
      "slu": 3618,
      "sch": 3619,
      "sfi": 3620,
      "sară": 3621,
      "soară": 3622,
      "salbe": 3623,
      "snop": 3624,
      "sfăr": 3625,
      "toi": 3626,
      "tină": 3627,
      "voară": 3628,
      "vală": 3629,
      "zin": 3630,
      "zale": 3631,
      "zdră": 3632,
      "zdro": 3633,
      "âte": 3634,
      "ârâ": 3635,
      "ăbii": 3636,
      "Ştii": 3637,
      "şea": 3638,
      "ştri": 3639,
      "şoaptă": 3640,
      "ŢA": 3641,
      "Ţara": 3642,
      "ţo": 3643,
      "ţând": 3644,
      "ţea": 3645,
      "ȘI": 3646,
      "regii": 3647,
      "inca": 3648,
      "intrat": 3649,
      "rij": 3650,
      "teni": 3651,
      "teste": 3652,
      "teze": 3653,
      "deţi": 3654,
      "desple": 3655,
      "destul": 3656,
      "unor": 3657,
      "cete": 3658,
      "cenu": 3659,
      "ceea": 3660,
      "arzătoare": 3661,
      "leu": 3662,
      "lecat": 3663,
      "înc": 3664,
      "înd": 3665,
      "înlă": 3666,
      "învă": 3667,
      "înneg": 3668,
      "încor": 3669,
      "înverzi": 3670,
      "oace": 3671,
      "oanele": 3672,
      "cuvântul": 3673,
      "tăţi": 3674,
      "tăcut": 3675,
      "pea": 3676,
      "petre": 3677,
      "peptu": 3678,
      "răb": 3679,
      "răco": 3680,
      "cada": 3681,
      "meşte": 3682,
      "melo": 3683,
      "ser": 3684,
      "sear": 3685,
      "seşte": 3686,
      "secul": 3687,
      "săr": 3688,
      "săgea": 3689,
      "ram": 3690,
      "ratul": 3691,
      "radioasă": 3692,
      "latră": 3693,
      "latic": 3694,
      "tari": 3695,
      "tabă": 3696,
      "tablo": 3697,
      "cimp": 3698,
      "ândul": 3699,
      "ieşi": 3700,
      "căme": 3701,
      "cărun": 3702,
      "cărei": 3703,
      "cădea": 3704,
      "lumi": 3705,
      "magi": 3706,
      "matasă": 3707,
      "stie": 3708,
      "stâlp": 3709,
      "nepă": 3710,
      "neşti": 3711,
      "neva": 3712,
      "nebuni": 3713,
      "ruș": 3714,
      "rupte": 3715,
      "veş": 3716,
      "vestea": 3717,
      "nică": 3718,
      "niţă": 3719,
      "nimeni": 3720,
      "măcar": 3721,
      "păcat": 3722,
      "stejă": 3723,
      "zia": 3724,
      "zică": 3725,
      "zidul": 3726,
      "suferi": 3727,
      "tim": 3728,
      "gen": 3729,
      "gerul": 3730,
      "visă": 3731,
      "vizi": 3732,
      "visu": 3733,
      "vitează": 3734,
      "viorele": 3735,
      "cov": 3736,
      "coş": 3737,
      "coară": 3738,
      "comoară": 3739,
      "dumbră": 3740,
      "chiul": 3741,
      "trecea": 3742,
      "scla": 3743,
      "scânduri": 3744,
      "Deodată": 3745,
      "găteşte": 3746,
      "găsesc": 3747,
      "numă": 3748,
      "piară": 3749,
      "picuri": 3750,
      "Petre": 3751,
      "Pentr": 3752,
      "bit": 3753,
      "biseri": 3754,
      "Înt": 3755,
      "sprij": 3756,
      "uirea": 3757,
      "uitare": 3758,
      "roşi": 3759,
      "roua": 3760,
      ".......": 3761,
      "limbă": 3762,
      "Cată": 3763,
      "fiind": 3764,
      "firul": 3765,
      "fiinţa": 3766,
      "turea": 3767,
      "Cei": 3768,
      "Cele": 3769,
      "tească": 3770,
      "Căl": 3771,
      "zător": 3772,
      "iubind": 3773,
      "zesc": 3774,
      "runt": 3775,
      "sari": 3776,
      "Sărma": 3777,
      "bătă": 3778,
      "bătu": 3779,
      "faptul": 3780,
      "price": 3781,
      "lunga": 3782,
      "lunii": 3783,
      "luncii": 3784,
      "pură": 3785,
      "giur": 3786,
      "loveşte": 3787,
      "diţi": 3788,
      "diochi": 3789,
      "diade": 3790,
      "făclie": 3791,
      "mpodo": 3792,
      "bani": 3793,
      "baba": 3794,
      "adie": 3795,
      "adapă": 3796,
      "culcat": 3797,
      "năvală": 3798,
      "năzdră": 3799,
      "alea": 3800,
      "alege": 3801,
      "pomi": 3802,
      "potică": 3803,
      "dulcele": 3804,
      "iubite": 3805,
      "ţesu": 3806,
      "ţesc": 3807,
      "rumpe": 3808,
      "străini": 3809,
      "strălucesc": 3810,
      "străluceşte": 3811,
      "strălucind": 3812,
      "nasc": 3813,
      "minţi": 3814,
      "minci": 3815,
      "minut": 3816,
      "daca": 3817,
      "dame": 3818,
      "întâl": 3819,
      "cred": 3820,
      "gata": 3821,
      "garită": 3822,
      "acestea": 3823,
      "vaie": 3824,
      "vaţă": 3825,
      "Iarna": 3826,
      "soarelui": 3827,
      "Lacrimi": 3828,
      "stăpână": 3829,
      "eroi": 3830,
      "sfat": 3831,
      "râd": 3832,
      "frumse": 3833,
      "doua": 3834,
      "morţei": 3835,
      "stai": 3836,
      "stalelor": 3837,
      "gusta": 3838,
      "dragi": 3839,
      "iasă": 3840,
      "brazi": 3841,
      "vremuri": 3842,
      "vremile": 3843,
      "onor": 3844,
      "buza": 3845,
      "despărţi": 3846,
      "Duhul": 3847,
      "piere": 3848,
      "nour": 3849,
      "nobil": 3850,
      "vers": 3851,
      "versuri": 3852,
      "Vestalelor": 3853,
      "fum": 3854,
      "fugea": 3855,
      "relele": 3856,
      "odat": 3857,
      "Nilul": 3858,
      "toti": 3859,
      "Albă": 3860,
      "turul": 3861,
      "turnul": 3862,
      "turbat": 3863,
      "raiuri": 3864,
      "raiului": 3865,
      "pornire": 3866,
      "durerei": 3867,
      "trecem": 3868,
      "grăvește": 3869,
      "noian": 3870,
      "aripele": 3871,
      "Păst": 3872,
      "Păsări": 3873,
      "pânză": 3874,
      "crucea": 3875,
      "veac": 3876,
      "ninsoare": 3877,
      "vecină": 3878,
      "guriţa": 3879,
      "corbii": 3880,
      "corona": 3881,
      "corăbii": 3882,
      "universul": 3883,
      "roadă": 3884,
      "văzu": 3885,
      "văzui": 3886,
      "plac": 3887,
      "patria": 3888,
      "privighi": 3889,
      "Auzi": 3890,
      "Trecând": 3891,
      "simţirea": 3892,
      "soţie": 3893,
      "Rămâne": 3894,
      "Cobor": 3895,
      "Mihai": 3896,
      "luminoase": 3897,
      "albaștri": 3898,
      "vedem": 3899,
      "aprindea": 3900,
      "încetişor": 3901,
      "strecoară": 3902,
      "Mulţi": 3903,
      "toamna": 3904,
      "vârful": 3905,
      "vârfuri": 3906,
      "fărme": 3907,
      "plăcută": 3908,
      "amarul": 3909,
      "mpregiur": 3910,
      "Prepeliţa": 3911,
      "răţie": 3912,
      "jură": 3913,
      "nimică": 3914,
      "alăturea": 3915,
      "poarte": 3916,
      "Floricele": 3917,
      "gratii": 3918,
      "ridic": 3919,
      "vechii": 3920,
      "gingaşe": 3921,
      "drăgu": 3922,
      "drăguliţă": 3923,
      "mers": 3924,
      "mergi": 3925,
      "deschisă": 3926,
      "coace": 3927,
      "coaste": 3928,
      "depărtată": 3929,
      "privești": 3930,
      "colindă": 3931,
      "arunce": 3932,
      "Privesc": 3933,
      "cuprind": 3934,
      "cuprinsă": 3935,
      "bătrâni": 3936,
      "bătrână": 3937,
      "afla": 3938,
      "domnie": 3939,
      "razele": 3940,
      "călători": 3941,
      "Zimbrul": 3942,
      "strim": 3943,
      "aurită": 3944,
      "monarc": 3945,
      "seninul": 3946,
      "zându": 3947,
      "sprintine": 3948,
      "OAREA": 3949,
      "liniște": 3950,
      "liniştire": 3951,
      "chinuri": 3952,
      "punte": 3953,
      "tron": 3954,
      "tronul": 3955,
      "Mereu": 3956,
      "răpit": 3957,
      "răpitor": 3958,
      "altarul": 3959,
      "tainicul": 3960,
      "dismierdat": 3961,
      "bulgă": 3962,
      "farmecul": 3963,
      "jeşte": 3964,
      "âieşte": 3965,
      "Mamă": 3966,
      "cârd": 3967,
      "străinul": 3968,
      "izvorul": 3969,
      "prăpa": 3970,
      "împin": 3971,
      "primăverii": 3972,
      "plaiuri": 3973,
      "voinicul": 3974,
      "ascuns": 3975,
      "ascundea": 3976,
      "Domn": 3977,
      "adevăr": 3978,
      "laşii": 3979,
      "dulceaţă": 3980,
      "strălucire": 3981,
      "Fugi": 3982,
      "trupuri": 3983,
      "înflorit": 3984,
      "zâna": 3985,
      "duşmane": 3986,
      "oglinda": 3987,
      "furtun": 3988,
      "Uită": 3989,
      "mbracă": 3990,
      "Poe": 3991,
      "talaz": 3992,
      "uscat": 3993,
      "cande": 3994,
      "canaluri": 3995,
      "palaturi": 3996,
      "Frunză": 3997,
      "Lip": 3998,
      "roșă": 3999,
      "palidă": 4000,
      "clară": 4001,
      "ciocoi": 4002,
      "ciunea": 4003,
      "neamuri": 4004,
      "sprintenă": 4005,
      "Margarită": 4006,
      "poala": 4007,
      "omenire": 4008,
      "omenirei": 4009,
      "stejar": 4010,
      "întinsă": 4011,
      "cunoscut": 4012,
      "crengile": 4013,
      "VENE": 4014,
      "scos": 4015,
      "înţeles": 4016,
      "răpede": 4017,
      "latină": 4018,
      "trestia": 4019,
      "ferești": 4020,
      "aprigul": 4021,
      "doamnă": 4022,
      "închis": 4023,
      "părăsit": 4024,
      "mângâi": 4025,
      "trimis": 4026,
      "Simţi": 4027,
      "Iubirea": 4028,
      "COD": 4029,
      "icoane": 4030,
      "omenesc": 4031,
      "roiuri": 4032,
      "vrodată": 4033,
      "ursita": 4034,
      "Lucesc": 4035,
      "treacăt": 4036,
      "Geme": 4037,
      "neclintit": 4038,
      "steluţe": 4039,
      "geniul": 4040,
      "răspuns": 4041,
      "cuiburi": 4042,
      "Cântic": 4043,
      "Purtând": 4044,
      "VIS": 4045,
      "crâng": 4046,
      "crânguri": 4047,
      "ndeamnă": 4048,
      "nflorit": 4049,
      "ngâna": 4050,
      "solie": 4051,
      "învins": 4052,
      "îndrăz": 4053,
      "răstur": 4054,
      "misterios": 4055,
      "păgâni": 4056,
      "orizonul": 4057,
      "isvorul": 4058,
      "grozav": 4059,
      "Faceţi": 4060,
      "şoimul": 4061,
      "armoni": 4062,
      "stoluri": 4063,
      "jăleşte": 4064,
      "Adria": 4065,
      "vrajă": 4066,
      "Şepte": 4067,
      "tuturora": 4068,
      "mântuitoare": 4069,
      "răcoritor": 4070,
      "mângâiere": 4071,
      "Zâmbi": 4072,
      "uscate": 4073,
      "ntinelă": 4074,
      "dismierdări": 4075,
      "acoperită": 4076,
      "Cristos": 4077,
      "Izvor": 4078,
      "Perdut": 4079,
      "ţărână": 4080,
      "naintează": 4081,
      "movilă": 4082,
      "glonţi": 4083,
      "Caii": 4084,
      "Floarea": 4085,
      "Italia": 4086,
      "broaşte": 4087,
      "porumbi": 4088,
      "Pătrunde": 4089,
      "dragostea": 4090,
      "spăimân": 4091,
      "Dridri": 4092,
      "Ginga": 4093,
      "Poartă": 4094,
      "odinioară": 4095,
      "săgeata": 4096,
      "nepăsare": 4097,
      ",,": 4098,
      ".”": 4099,
      "AT": 4100,
      "Are": 4101,
      "Aşte": 4102,
      "Amor": 4103,
      "Asta": 4104,
      "Ades": 4105,
      "Abie": 4106,
      "Apele": 4107,
      "Afară": 4108,
      "BU": 4109,
      "Bai": 4110,
      "CĂ": 4111,
      "Cal": 4112,
      "Con": 4113,
      "CRI": 4114,
      "Cloa": 4115,
      "Crunt": 4116,
      "DĂ": 4117,
      "Daţi": 4118,
      "Dându": 4119,
      "Flă": 4120,
      "Fan": 4121,
      "Fran": 4122,
      "Falnic": 4123,
      "GU": 4124,
      "Gâ": 4125,
      "Gra": 4126,
      "Gro": 4127,
      "Glori": 4128,
      "Gren": 4129,
      "Ghi": 4130,
      "Gândi": 4131,
      "Gândul": 4132,
      "Hy": 4133,
      "Hot": 4134,
      "IO": 4135,
      "Int": 4136,
      "Lo": 4137,
      "LĂ": 4138,
      "Lor": 4139,
      "Lind": 4140,
      "LUL": 4141,
      "LIN": 4142,
      "MN": 4143,
      "Mu": 4144,
      "Muri": 4145,
      "Mier": 4146,
      "MOR": 4147,
      "MAN": 4148,
      "Mhamed": 4149,
      "NO": 4150,
      "Naintea": 4151,
      "Om": 4152,
      "Or": 4153,
      "Omeni": 4154,
      "Oastea": 4155,
      "Por": 4156,
      "Pop": 4157,
      "Pare": 4158,
      "Pier": 4159,
      "Poţi": 4160,
      "SO": 4161,
      "Sp": 4162,
      "Scu": 4163,
      "Schi": 4164,
      "Spu": 4165,
      "Sună": 4166,
      "San": 4167,
      "Sfăr": 4168,
      "Sbură": 4169,
      "SOAREA": 4170,
      "TOA": 4171,
      "Unu": 4172,
      "Umb": 4173,
      "Unii": 4174,
      "Vâ": 4175,
      "Ver": 4176,
      "Vână": 4177,
      "Vara": 4178,
      "Varsă": 4179,
      "Zece": 4180,
      "ag": 4181,
      "adă": 4182,
      "aju": 4183,
      "astu": 4184,
      "aseme": 4185,
      "aducă": 4186,
      "afundă": 4187,
      "cce": 4188,
      "cla": 4189,
      "craiul": 4190,
      "clatină": 4191,
      "die": 4192,
      "dună": 4193,
      "fină": 4194,
      "fara": 4195,
      "fâl": 4196,
      "gui": 4197,
      "gină": 4198,
      "gât": 4199,
      "goală": 4200,
      "han": 4201,
      "his": 4202,
      "hrană": 4203,
      "ima": 4204,
      "iste": 4205,
      "iau": 4206,
      "iro": 4207,
      "imb": 4208,
      "isi": 4209,
      "iţa": 4210,
      "izb": 4211,
      "iveşte": 4212,
      "jo": 4213,
      "jor": 4214,
      "jele": 4215,
      "lului": 4216,
      "mini": 4217,
      "mos": 4218,
      "ndu": 4219,
      "nai": 4220,
      "nver": 4221,
      "nsenin": 4222,
      "nându": 4223,
      "ncrede": 4224,
      "nşiră": 4225,
      "oh": 4226,
      "oce": 4227,
      "obi": 4228,
      "oţii": 4229,
      "oști": 4230,
      "odorul": 4231,
      "pos": 4232,
      "ror": 4233,
      "rânt": 4234,
      "sâ": 4235,
      "sne": 4236,
      "sânt": 4237,
      "sai": 4238,
      "tar": 4239,
      "trai": 4240,
      "tâmp": 4241,
      "uși": 4242,
      "uţa": 4243,
      "urează": 4244,
      "umple": 4245,
      "var": 4246,
      "vând": 4247,
      "vru": 4248,
      "vatră": 4249,
      "zvâr": 4250,
      "zarul": 4251,
      "zindu": 4252,
      "îmbracă": 4253,
      "Şter": 4254,
      "şmă": 4255,
      "şinele": 4256,
      "ŢĂ": 4257,
      "ŢII": 4258,
      "ţat": 4259,
      "ţinte": 4260,
      "șie": 4261,
      "șei": 4262,
      "șului": 4263,
      "șală": 4264,
      "—\"": 4265,
      "”.": 4266,
      "rene": 4267,
      "incă": 4268,
      "intră": 4269,
      "rimea": 4270,
      "temi": 4271,
      "tești": 4272,
      "deş": 4273,
      "dere": 4274,
      "dese": 4275,
      "deși": 4276,
      "desp": 4277,
      "demult": 4278,
      "devale": 4279,
      "depune": 4280,
      "depus": 4281,
      "deștea": 4282,
      "ânz": 4283,
      "cesc": 4284,
      "ceau": 4285,
      "celui": 4286,
      "cetate": 4287,
      "cenele": 4288,
      "cetatea": 4289,
      "cetini": 4290,
      "aro": 4291,
      "artă": 4292,
      "armele": 4293,
      "arbori": 4294,
      "lemn": 4295,
      "legat": 4296,
      "înde": 4297,
      "înşi": 4298,
      "înch": 4299,
      "îndă": 4300,
      "întrece": 4301,
      "înspre": 4302,
      "înaltă": 4303,
      "înalt": 4304,
      "îndată": 4305,
      "încon": 4306,
      "îngheaţă": 4307,
      "înfrăţire": 4308,
      "oape": 4309,
      "oaga": 4310,
      "oastea": 4311,
      "orb": 4312,
      "orbi": 4313,
      "oraş": 4314,
      "oraș": 4315,
      "orbire": 4316,
      "cuţă": 4317,
      "curat": 4318,
      "cutremur": 4319,
      "tălin": 4320,
      "tăcută": 4321,
      "peară": 4322,
      "răci": 4323,
      "rădă": 4324,
      "răgu": 4325,
      "rănit": 4326,
      "răsar": 4327,
      "cata": 4328,
      "carea": 4329,
      "sece": 4330,
      "secol": 4331,
      "altor": 4332,
      "albu": 4333,
      "alnice": 4334,
      "ţire": 4335,
      "ţite": 4336,
      "ţipă": 4337,
      "ţiei": 4338,
      "săpat": 4339,
      "razi": 4340,
      "rasul": 4341,
      "lag": 4342,
      "lampă": 4343,
      "lapte": 4344,
      "tarea": 4345,
      "mili": 4346,
      "ciţi": 4347,
      "ieste": 4348,
      "căm": 4349,
      "lut": 4350,
      "luat": 4351,
      "lustru": 4352,
      "lupte": 4353,
      "manii": 4354,
      "masca": 4355,
      "stui": 4356,
      "stia": 4357,
      "stol": 4358,
      "nești": 4359,
      "nevoi": 4360,
      "nebună": 4361,
      "rump": 4362,
      "ruptă": 4363,
      "vech": 4364,
      "veli": 4365,
      "vești": 4366,
      "veghe": 4367,
      "venind": 4368,
      "nicul": 4369,
      "niște": 4370,
      "şir": 4371,
      "şira": 4372,
      "măie": 4373,
      "mărul": 4374,
      "măsură": 4375,
      "inel": 4376,
      "păca": 4377,
      "păru": 4378,
      "păsuri": 4379,
      "păinje": 4380,
      "steie": 4381,
      "zitor": 4382,
      "zilnic": 4383,
      "zișului": 4384,
      "sure": 4385,
      "sura": 4386,
      "suferin": 4387,
      "oriunde": 4388,
      "tir": 4389,
      "tite": 4390,
      "tită": 4391,
      "tira": 4392,
      "gele": 4393,
      "genii": 4394,
      "visa": 4395,
      "viclea": 4396,
      "virtu": 4397,
      "viorie": 4398,
      "urând": 4399,
      "duşmă": 4400,
      "dinainte": 4401,
      "chiu": 4402,
      "chioş": 4403,
      "oiul": 4404,
      "treb": 4405,
      "trezit": 4406,
      "scli": 4407,
      "sclipi": 4408,
      "Dedi": 4409,
      "Deasupră": 4410,
      "atru": 4411,
      "atmos": 4412,
      "numele": 4413,
      "piz": 4414,
      "picat": 4415,
      "pirami": 4416,
      "oarbe": 4417,
      "Înge": 4418,
      "spaţi": 4419,
      "spânz": 4420,
      "aici": 4421,
      "aibă": 4422,
      "uire": 4423,
      "feţi": 4424,
      "ferii": 4425,
      "rod": 4426,
      "rost": 4427,
      "roman": 4428,
      "lăsa": 4429,
      "lăcrimi": 4430,
      "lături": 4431,
      "lăţeşte": 4432,
      "lăuntru": 4433,
      "......": 4434,
      "mbrăţi": 4435,
      "libe": 4436,
      "limpi": 4437,
      "otrivă": 4438,
      "pah": 4439,
      "paj": 4440,
      "pana": 4441,
      "ntoar": 4442,
      "ntind": 4443,
      "ntâi": 4444,
      "ntins": 4445,
      "uneşte": 4446,
      "file": 4447,
      "firea": 4448,
      "tupi": 4449,
      "tufe": 4450,
      "Celor": 4451,
      "Cătălin": 4452,
      "ceapă": 4453,
      "zău": 4454,
      "zemat": 4455,
      "beată": 4456,
      "samă": 4457,
      "sacru": 4458,
      "băd": 4459,
      "pribe": 4460,
      "privindu": 4461,
      "câl": 4462,
      "gia": 4463,
      "giune": 4464,
      "locuri": 4465,
      "dite": 4466,
      "dică": 4467,
      "disc": 4468,
      "dăţi": 4469,
      "făl": 4470,
      "făcând": 4471,
      "mpră": 4472,
      "mphis": 4473,
      "ban": 4474,
      "multă": 4475,
      "mulţă": 4476,
      "culca": 4477,
      "culci": 4478,
      "năvăli": 4479,
      "potica": 4480,
      "poiene": 4481,
      "lâna": 4482,
      "lână": 4483,
      "iubim": 4484,
      "iubitor": 4485,
      "sultan": 4486,
      "zburat": 4487,
      "străluce": 4488,
      "dascăl": 4489,
      "dorm": 4490,
      "dorinţi": 4491,
      "dormind": 4492,
      "câne": 4493,
      "oprea": 4494,
      "opresc": 4495,
      "gate": 4496,
      "garii": 4497,
      "aceia": 4498,
      "frunţi": 4499,
      "sfin": 4500,
      "sfrân": 4501,
      "sfarmă": 4502,
      "umbrei": 4503,
      "umbrele": 4504,
      "râs": 4505,
      "sânte": 4506,
      "sântă": 4507,
      "cernit": 4508,
      "cernită": 4509,
      "vieţ": 4510,
      "Dintre": 4511,
      "frumuş": 4512,
      "doine": 4513,
      "doiniţă": 4514,
      "doreşti": 4515,
      "morminte": 4516,
      "râncenele": 4517,
      "ian": 4518,
      "iata": 4519,
      "iasa": 4520,
      "brazii": 4521,
      "vouă": 4522,
      "parc": 4523,
      "murim": 4524,
      "vreun": 4525,
      "vremii": 4526,
      "mut": 4527,
      "mure": 4528,
      "mumă": 4529,
      "onată": 4530,
      "Dure": 4531,
      "Duşma": 4532,
      "undelor": 4533,
      "pieri": 4534,
      "pierit": 4535,
      "arate": 4536,
      "trăiască": 4537,
      "vesela": 4538,
      "Veniţi": 4539,
      "mnei": 4540,
      "odoare": 4541,
      "Nimeni": 4542,
      "lucit": 4543,
      "lucire": 4544,
      "luciri": 4545,
      "Alta": 4546,
      "Albe": 4547,
      "turn": 4548,
      "preţi": 4549,
      "preot": 4550,
      "preface": 4551,
      "prevesti": 4552,
      "catarg": 4553,
      "........................": 4554,
      "sărutând": 4555,
      "sărutată": 4556,
      "aripă": 4557,
      "aripa": 4558,
      "sprezece": 4559,
      "nalta": 4560,
      "Părin": 4561,
      "pânza": 4562,
      "pânzele": 4563,
      "plet": 4564,
      "plece": 4565,
      "cruda": 4566,
      "menire": 4567,
      "menită": 4568,
      "fericite": 4569,
      "vino": 4570,
      "unaţi": 4571,
      "corn": 4572,
      "corbi": 4573,
      "cornul": 4574,
      "pala": 4575,
      "palate": 4576,
      "palpită": 4577,
      "daruri": 4578,
      "singu": 4579,
      "pustia": 4580,
      "unire": 4581,
      "murmură": 4582,
      "ncetişor": 4583,
      "roagă": 4584,
      "adânce": 4585,
      "fragi": 4586,
      "albul": 4587,
      "albina": 4588,
      "Neam": 4589,
      "moșnea": 4590,
      "molatic": 4591,
      "curmă": 4592,
      "priviri": 4593,
      "priviţi": 4594,
      "privighe": 4595,
      "Auzit": 4596,
      "marmur": 4597,
      "uşori": 4598,
      "vreau": 4599,
      "veniră": 4600,
      "simţit": 4601,
      "sosesc": 4602,
      "vecie": 4603,
      "Răsare": 4604,
      "mpăraţi": 4605,
      "ndră": 4606,
      "ndru": 4607,
      "scumpa": 4608,
      "mărirea": 4609,
      "Contra": 4610,
      "Cobori": 4611,
      "așează": 4612,
      "întreb": 4613,
      "întrebi": 4614,
      "perdele": 4615,
      "perdut": 4616,
      "albastrul": 4617,
      "pluti": 4618,
      "plutesc": 4619,
      "începe": 4620,
      "stire": 4621,
      "gândeşte": 4622,
      "vârtej": 4623,
      "plăcut": 4624,
      "indeni": 4625,
      "mprejur": 4626,
      "mprejuru": 4627,
      "drege": 4628,
      "dreptul": 4629,
      "isvoară": 4630,
      "jug": 4631,
      "iernei": 4632,
      "nimicuri": 4633,
      "miez": 4634,
      "duio": 4635,
      "graţi": 4636,
      "RISOAREA": 4637,
      "deschise": 4638,
      "lacrimile": 4639,
      "română": 4640,
      "românul": 4641,
      "poeţi": 4642,
      "poezia": 4643,
      "arunc": 4644,
      "cuibu": 4645,
      "aripile": 4646,
      "Atât": 4647,
      "Privind": 4648,
      "cuprinse": 4649,
      "domni": 4650,
      "vesteji": 4651,
      "gândirii": 4652,
      "strigoi": 4653,
      "dismiardă": 4654,
      "codrilor": 4655,
      "DES": 4656,
      "răsări": 4657,
      "Draga": 4658,
      "Dragii": 4659,
      "ajungă": 4660,
      "ajungi": 4661,
      "ntrebi": 4662,
      "fulgeri": 4663,
      "fulgeră": 4664,
      "fulgerul": 4665,
      "gândurile": 4666,
      "Dac": 4667,
      "Legă": 4668,
      "OARE": 4669,
      "linit": 4670,
      "liniștea": 4671,
      "tindă": 4672,
      "piciorul": 4673,
      "Baba": 4674,
      "punţi": 4675,
      "pungă": 4676,
      "speră": 4677,
      "spera": 4678,
      "tropot": 4679,
      "mișc": 4680,
      "strâns": 4681,
      "Memphis": 4682,
      "frăţie": 4683,
      "frăţiori": 4684,
      "ţintă": 4685,
      "deşteptat": 4686,
      "jit": 4687,
      "jilţ": 4688,
      "stâng": 4689,
      "întuneci": 4690,
      "leagănă": 4691,
      "Majă": 4692,
      "somnor": 4693,
      "crunte": 4694,
      "primăvara": 4695,
      "puterea": 4696,
      "umfla": 4697,
      "voinică": 4698,
      "avui": 4699,
      "bietul": 4700,
      "natură": 4701,
      "şorul": 4702,
      "sălbate": 4703,
      "credeam": 4704,
      "ghirlan": 4705,
      "codrului": 4706,
      "slăvesc": 4707,
      "slăvită": 4708,
      "grădina": 4709,
      "bolţi": 4710,
      "bolna": 4711,
      "răsunător": 4712,
      "vărsând": 4713,
      "vorbea": 4714,
      "Iute": 4715,
      "această": 4716,
      "fricoş": 4717,
      "hoţul": 4718,
      "hohot": 4719,
      "trupul": 4720,
      "înflorite": 4721,
      "manta": 4722,
      "stăpâne": 4723,
      "Ferici": 4724,
      "ANUL": 4725,
      "ROZ": 4726,
      "ROMÂN": 4727,
      "crească": 4728,
      "căldură": 4729,
      "duşman": 4730,
      "scriu": 4731,
      "adormi": 4732,
      "furtune": 4733,
      "furtuna": 4734,
      "Zboară": 4735,
      "astazi": 4736,
      "ostenite": 4737,
      "sunete": 4738,
      "ușă": 4739,
      "şopti": 4740,
      "şoptesc": 4741,
      "seacă": 4742,
      "păreche": 4743,
      "trecător": 4744,
      "trăim": 4745,
      "trăit": 4746,
      "Popa": 4747,
      "uscată": 4748,
      "urechi": 4749,
      "perion": 4750,
      "zburlite": 4751,
      "Moldovă": 4752,
      "Moldovei": 4753,
      "Fruntea": 4754,
      "Frunzișului": 4755,
      "Liber": 4756,
      "Pute": 4757,
      "blond": 4758,
      "blonde": 4759,
      "războaie": 4760,
      "fioros": 4761,
      "voinicie": 4762,
      "voinicii": 4763,
      "parfumate": 4764,
      "palida": 4765,
      "Inimă": 4766,
      "nţelege": 4767,
      "mulţime": 4768,
      "aceeași": 4769,
      "sprinten": 4770,
      "sprintene": 4771,
      "ARĂ": 4772,
      "Codrii": 4773,
      "Maroc": 4774,
      "Taci": 4775,
      "acopere": 4776,
      "balauri": 4777,
      "încântător": 4778,
      "cuvânta": 4779,
      "subţiri": 4780,
      "fantasme": 4781,
      "Domnului": 4782,
      "Plânge": 4783,
      "frângi": 4784,
      "stejari": 4785,
      "stejarul": 4786,
      "tutindeni": 4787,
      "brazde": 4788,
      "gondola": 4789,
      "Singură": 4790,
      "groapă": 4791,
      "groază": 4792,
      "trag": 4793,
      "şerpe": 4794,
      "înţelepciune": 4795,
      "luptate": 4796,
      "luptei": 4797,
      "rugăciune": 4798,
      "vestit": 4799,
      "suvenire": 4800,
      "suvenirul": 4801,
      "bărbat": 4802,
      "bărbaţi": 4803,
      "Mâni": 4804,
      "Urmă": 4805,
      "Urmând": 4806,
      "clătin": 4807,
      "doamnei": 4808,
      "lunecă": 4809,
      "pădurii": 4810,
      "genunche": 4811,
      "rotunde": 4812,
      "Bistri": 4813,
      "aspră": 4814,
      "aspru": 4815,
      "drume": 4816,
      "înviere": 4817,
      "veșted": 4818,
      "ntinsă": 4819,
      "dragostei": 4820,
      "cumplită": 4821,
      "cumplita": 4822,
      "Gerul": 4823,
      "gruma": 4824,
      "nchide": 4825,
      "ncântătoare": 4826,
      "vânătoare": 4827,
      "steluţă": 4828,
      "zidiri": 4829,
      "lipse": 4830,
      "prietini": 4831,
      "diafană": 4832,
      "adunat": 4833,
      "Dunăre": 4834,
      "galbini": 4835,
      "pruncu": 4836,
      "însuși": 4837,
      "tăinuit": 4838,
      "tăinuită": 4839,
      "răstoarnă": 4840,
      "capăt": 4841,
      "sărmana": 4842,
      "şterg": 4843,
      "culege": 4844,
      "rătăcită": 4845,
      "Braţul": 4846,
      "GER": 4847,
      "MAI": 4848,
      "POE": 4849,
      "limpede": 4850,
      "întreagă": 4851,
      "întreabă": 4852,
      "fraged": 4853,
      "jălesc": 4854,
      "jălire": 4855,
      "Răspândind": 4856,
      "oglinzi": 4857,
      "dismierdare": 4858,
      "clopotul": 4859,
      "sălbatic": 4860,
      "sălbatici": 4861,
      "creanga": 4862,
      "vitejie": 4863,
      "Murgul": 4864,
      "SCRISOAREA": 4865,
      "amăgi": 4866,
      "amărâ": 4867,
      "şuieră": 4868,
      "şuierând": 4869,
      "cereasca": 4870,
      "cuget": 4871,
      "părinţi": 4872,
      "tuturor": 4873,
      "zburător": 4874,
      "totuși": 4875,
      "blestema": 4876,
      "Credin": 4877,
      "Mado": 4878,
      "Madona": 4879,
      "Vulturul": 4880,
      "avane": 4881,
      "nchina": 4882,
      "sfet": 4883,
      "înăl": 4884,
      "lacrimă": 4885,
      "vijelia": 4886,
      "vijelii": 4887,
      "Încet": 4888,
      "triumfală": 4889,
      "scuture": 4890,
      "flacăra": 4891,
      "împletiţi": 4892,
      "ADIO": 4893,
      "Carpaţi": 4894,
      "Vreme": 4895,
      "illa": 4896,
      "Şoptind": 4897,
      "desigur": 4898,
      "lebăda": 4899,
      "îngâna": 4900,
      "castel": 4901,
      "căprioară": 4902,
      "veghează": 4903,
      "locaşul": 4904,
      "ostaşi": 4905,
      "nălucă": 4906,
      "întâmplă": 4907,
      "gândăcel": 4908,
      "crivăţul": 4909,
      "albăstrie": 4910,
      "mohorâtă": 4911,
      "Vărsând": 4912,
      "poiana": 4913,
      "ciocârlia": 4914,
      "Avut": 4915,
      "Apusul": 4916,
      "Astăzi": 4917,
      "Aduceri": 4918,
      "Duios": 4919,
      "Fiiul": 4920,
      "Traian": 4921,
      "aburi": 4922,
      "nfocare": 4923,
      "odih": 4924,
      "tunet": 4925,
      "rebele": 4926,
      "înarmaţi": 4927,
      "înfloreşte": 4928,
      "cofiţă": 4929,
      "limbile": 4930,
      "bădiţă": 4931,
      "năframă": 4932,
      "privighietoarea": 4933,
      "Legendă": 4934,
      "adevărat": 4935,
      "păsărică": 4936,
      "Biondine": 4937,
      "Mândruliţă": 4938,
      "splendoare": 4939,
      "CÂNTIC": 4940,
      "Gondola": 4941,
      "Moartea": 4942,
      "foamea": 4943,
      "toiag": 4944,
      "zinghe": 4945,
      "îndoaie": 4946,
      "înnegrit": 4947,
      "înverzit": 4948,
      "sărbă": 4949,
      "rușine": 4950,
      "dumbrăvi": 4951,
      "Păsărică": 4952,
      "prăpastia": 4953,
      "Grenada": 4954,
      "Hyperion": 4955,
      "Hotin": 4956,
      "Lordul": 4957,
      "Linda": 4958,
      "Sfărmaţi": 4959,
      "Vânătorul": 4960,
      "ajutor": 4961,
      "fâlf": 4962,
      "sâmb": 4963,
      "deșteaptă": 4964,
      "albumul": 4965,
      "vechie": 4966,
      "atmosfe": 4967,
      "spaţiu": 4968,
      "lăcrimioară": 4969,
      "\".": 4970,
      "?”": 4971,
      "Ae": 4972,
      "Ave": 4973,
      "Ani": 4974,
      "Apri": 4975,
      "Adân": 4976,
      "Aduc": 4977,
      "Acele": 4978,
      "Afri": 4979,
      "Ager": 4980,
      "Aducând": 4981,
      "BE": 4982,
      "BO": 4983,
      "Bal": 4984,
      "Bat": 4985,
      "Bună": 4986,
      "Biata": 4987,
      "Crin": 4988,
      "Cui": 4989,
      "Clă": 4990,
      "Cos": 4991,
      "Com": 4992,
      "Câr": 4993,
      "Coră": 4994,
      "DI": 4995,
      "Di": 4996,
      "DUL": 4997,
      "DORUL": 4998,
      "Egi": 4999,
      "Ești": 5000,
      "Eter": 5001,
      "FE": 5002,
      "FĂ": 5003,
      "Fra": 5004,
      "Frăţi": 5005,
      "Fură": 5006,
      "FĂT": 5007,
      "Go": 5008,
      "Ha": 5009,
      "Hrist": 5010,
      "IU": 5011,
      "Is": 5012,
      "Ian": 5013,
      "IAR": 5014,
      "Joh": 5015,
      "LI": 5016,
      "Lin": 5017,
      "Lună": 5018,
      "Log": 5019,
      "MB": 5020,
      "Min": 5021,
      "Mână": 5022,
      "MOA": 5023,
      "MAL": 5024,
      "MURI": 5025,
      "ND": 5026,
      "NI": 5027,
      "Na": 5028,
      "Nat": 5029,
      "Nini": 5030,
      "NDE": 5031,
      "Noapte": 5032,
      "Nani": 5033,
      "Norul": 5034,
      "OI": 5035,
      "Oare": 5036,
      "Olio": 5037,
      "Pl": 5038,
      "Pâ": 5039,
      "Pia": 5040,
      "Ru": 5041,
      "Ram": 5042,
      "RCE": 5043,
      "RGĂ": 5044,
      "SU": 5045,
      "Sul": 5046,
      "Sun": 5047,
      "Sor": 5048,
      "Soare": 5049,
      "Sori": 5050,
      "Scul": 5051,
      "Som": 5052,
      "Saltă": 5053,
      "Scump": 5054,
      "Scânte": 5055,
      "TU": 5056,
      "Ti": 5057,
      "Top": 5058,
      "TAR": 5059,
      "Trista": 5060,
      "Ure": 5061,
      "Uni": 5062,
      "Vea": 5063,
      "Vii": 5064,
      "Valuri": 5065,
      "Valul": 5066,
      "Valea": 5067,
      "Zu": 5068,
      "Zân": 5069,
      "Zam": 5070,
      "Zvâr": 5071,
      "Zgomot": 5072,
      "Zdro": 5073,
      "ame": 5074,
      "ase": 5075,
      "ami": 5076,
      "ași": 5077,
      "area": 5078,
      "adin": 5079,
      "anu": 5080,
      "aţa": 5081,
      "arii": 5082,
      "avânt": 5083,
      "amare": 5084,
      "ască": 5085,
      "apăr": 5086,
      "aspre": 5087,
      "astru": 5088,
      "ascu": 5089,
      "agon": 5090,
      "bin": 5091,
      "bru": 5092,
      "bnic": 5093,
      "borii": 5094,
      "cra": 5095,
      "coase": 5096,
      "dară": 5097,
      "dalba": 5098,
      "ev": 5099,
      "ex": 5100,
      "ere": 5101,
      "eri": 5102,
      "eni": 5103,
      "esta": 5104,
      "frâu": 5105,
      "frămân": 5106,
      "frânt": 5107,
      "gau": 5108,
      "glă": 5109,
      "gli": 5110,
      "gată": 5111,
      "glume": 5112,
      "grâ": 5113,
      "gâr": 5114,
      "graiul": 5115,
      "grâul": 5116,
      "he": 5117,
      "hii": 5118,
      "ide": 5119,
      "ilu": 5120,
      "joară": 5121,
      "jalnice": 5122,
      "lcov": 5123,
      "mre": 5124,
      "mrea": 5125,
      "mină": 5126,
      "mol": 5127,
      "nse": 5128,
      "nta": 5129,
      "nși": 5130,
      "nco": 5131,
      "nţă": 5132,
      "ndi": 5133,
      "ntrece": 5134,
      "namor": 5135,
      "ndulci": 5136,
      "nverzi": 5137,
      "ncăl": 5138,
      "ncle": 5139,
      "nvaţă": 5140,
      "nfricoş": 5141,
      "ngenunche": 5142,
      "omă": 5143,
      "oște": 5144,
      "obra": 5145,
      "oresc": 5146,
      "olit": 5147,
      "orează": 5148,
      "pti": 5149,
      "pind": 5150,
      "pună": 5151,
      "plea": 5152,
      "proa": 5153,
      "ptură": 5154,
      "pândi": 5155,
      "pâlp": 5156,
      "pror": 5157,
      "rs": 5158,
      "sfa": 5159,
      "smin": 5160,
      "sop": 5161,
      "sâr": 5162,
      "son": 5163,
      "scuri": 5164,
      "smar": 5165,
      "sora": 5166,
      "tun": 5167,
      "tom": 5168,
      "tina": 5169,
      "tâi": 5170,
      "traiul": 5171,
      "tpala": 5172,
      "umi": 5173,
      "uma": 5174,
      "urele": 5175,
      "umplu": 5176,
      "vroze": 5177,
      "vada": 5178,
      "vrut": 5179,
      "zat": 5180,
      "zvo": 5181,
      "zână": 5182,
      "znic": 5183,
      "ziei": 5184,
      "ÂR": 5185,
      "Îne": 5186,
      "Împ": 5187,
      "Împrejuru": 5188,
      "âta": 5189,
      "âind": 5190,
      "âia": 5191,
      "ŞTE": 5192,
      "ŞTI": 5193,
      "şu": 5194,
      "şine": 5195,
      "şoară": 5196,
      "şele": 5197,
      "şneşte": 5198,
      "Ţă": 5199,
      "Ţin": 5200,
      "Ţie": 5201,
      "ţind": 5202,
      "ţească": 5203,
      "șa": 5204,
      "șni": 5205,
      "șoară": 5206,
      "șoapte": 5207,
      "ți": 5208,
      "’,": 5209,
      "reţ": 5210,
      "reste": 5211,
      "regi": 5212,
      "rești": 5213,
      "recad": 5214,
      "inalta": 5215,
      "inalti": 5216,
      "inoce": 5217,
      "rici": 5218,
      "riei": 5219,
      "ristă": 5220,
      "rioase": 5221,
      "tem": 5222,
      "tez": 5223,
      "teme": 5224,
      "teşti": 5225,
      "teza": 5226,
      "teatru": 5227,
      "deca": 5228,
      "dește": 5229,
      "devine": 5230,
      "destin": 5231,
      "demo": 5232,
      "deşer": 5233,
      "degrabă": 5234,
      "undă": 5235,
      "unii": 5236,
      "unare": 5237,
      "unghe": 5238,
      "cela": 5239,
      "ceni": 5240,
      "ceii": 5241,
      "ceara": 5242,
      "cerut": 5243,
      "arcu": 5244,
      "arta": 5245,
      "arpă": 5246,
      "arzi": 5247,
      "arcuri": 5248,
      "arbor": 5249,
      "let": 5250,
      "lete": 5251,
      "leşte": 5252,
      "înste": 5253,
      "înea": 5254,
      "îngu": 5255,
      "înche": 5256,
      "încun": 5257,
      "înapoi": 5258,
      "înstrăin": 5259,
      "încrun": 5260,
      "închip": 5261,
      "îndreaptă": 5262,
      "înain": 5263,
      "înece": 5264,
      "încoace": 5265,
      "înspăimân": 5266,
      "oacă": 5267,
      "oana": 5268,
      "orga": 5269,
      "cupa": 5270,
      "cuţa": 5271,
      "cufund": 5272,
      "cuieşte": 5273,
      "cutremură": 5274,
      "cucoare": 5275,
      "tări": 5276,
      "tăţii": 5277,
      "tătoare": 5278,
      "tători": 5279,
      "tăcerea": 5280,
      "pene": 5281,
      "perea": 5282,
      "peşte": 5283,
      "petrece": 5284,
      "petrec": 5285,
      "răi": 5286,
      "răsu": 5287,
      "rămu": 5288,
      "răvit": 5289,
      "răsunet": 5290,
      "răscoală": 5291,
      "caz": 5292,
      "cape": 5293,
      "case": 5294,
      "cafe": 5295,
      "cali": 5296,
      "canal": 5297,
      "mez": 5298,
      "merin": 5299,
      "melan": 5300,
      "meargă": 5301,
      "mezul": 5302,
      "menește": 5303,
      "sese": 5304,
      "semin": 5305,
      "secoli": 5306,
      "ali": 5307,
      "alţă": 5308,
      "alune": 5309,
      "alună": 5310,
      "ţio": 5311,
      "ţirea": 5312,
      "ţimea": 5313,
      "ţipet": 5314,
      "sătul": 5315,
      "sămn": 5316,
      "sărăci": 5317,
      "ras": 5318,
      "raie": 5319,
      "raşul": 5320,
      "ramase": 5321,
      "lata": 5322,
      "laco": 5323,
      "lampa": 5324,
      "tasa": 5325,
      "tarii": 5326,
      "mim": 5327,
      "mite": 5328,
      "mirare": 5329,
      "cie": 5330,
      "ciul": 5331,
      "ciei": 5332,
      "cios": 5333,
      "cioara": 5334,
      "iete": 5335,
      "ieie": 5336,
      "căpă": 5337,
      "căsu": 5338,
      "căpi": 5339,
      "cătoare": 5340,
      "cămile": 5341,
      "cădeau": 5342,
      "lucru": 5343,
      "lumile": 5344,
      "masa": 5345,
      "strun": 5346,
      "stoasă": 5347,
      "stâl": 5348,
      "nec": 5349,
      "ner": 5350,
      "net": 5351,
      "nefi": 5352,
      "nestră": 5353,
      "nepre": 5354,
      "necur": 5355,
      "negură": 5356,
      "negura": 5357,
      "nepăsă": 5358,
      "nemişcare": 5359,
      "nespus": 5360,
      "nenoro": 5361,
      "nenumă": 5362,
      "nevroze": 5363,
      "rug": 5364,
      "rude": 5365,
      "ruine": 5366,
      "ruină": 5367,
      "rugini": 5368,
      "vest": 5369,
      "venii": 5370,
      "vezie": 5371,
      "vestind": 5372,
      "urilor": 5373,
      "niri": 5374,
      "nimă": 5375,
      "şică": 5376,
      "şiruri": 5377,
      "măn": 5378,
      "mătu": 5379,
      "măia": 5380,
      "măvara": 5381,
      "mătasă": 5382,
      "pălă": 5383,
      "pămân": 5384,
      "păşeşte": 5385,
      "stei": 5386,
      "stem": 5387,
      "stearpă": 5388,
      "zimbru": 5389,
      "suind": 5390,
      "suoară": 5391,
      "supre": 5392,
      "sugru": 5393,
      "succe": 5394,
      "orile": 5395,
      "oriși": 5396,
      "tiu": 5397,
      "tima": 5398,
      "tipă": 5399,
      "tirea": 5400,
      "tiran": 5401,
      "vibra": 5402,
      "viţele": 5403,
      "vişinele": 5404,
      "cot": 5405,
      "come": 5406,
      "comoar": 5407,
      "coji": 5408,
      "covoare": 5409,
      "coperi": 5410,
      "colac": 5411,
      "urg": 5412,
      "urul": 5413,
      "urât": 5414,
      "dura": 5415,
      "ducea": 5416,
      "dinţi": 5417,
      "oială": 5418,
      "tret": 5419,
      "tremura": 5420,
      "trezeşte": 5421,
      "trezește": 5422,
      "scru": 5423,
      "scrie": 5424,
      "Des": 5425,
      "Deși": 5426,
      "inicele": 5427,
      "gător": 5428,
      "pilot": 5429,
      "oarsă": 5430,
      "oarba": 5431,
      "oardele": 5432,
      "Pei": 5433,
      "Peri": 5434,
      "Petrec": 5435,
      "bite": 5436,
      "biul": 5437,
      "biţi": 5438,
      "bili": 5439,
      "auzea": 5440,
      "Încă": 5441,
      "Îngân": 5442,
      "Înlăuntru": 5443,
      "...“": 5444,
      "spo": 5445,
      "sprâncenele": 5446,
      "aimă": 5447,
      "uitată": 5448,
      "uimeşte": 5449,
      "Cucul": 5450,
      "feti": 5451,
      "fetei": 5452,
      "feţei": 5453,
      "rog": 5454,
      "roz": 5455,
      "roma": 5456,
      "rosu": 5457,
      "ropot": 5458,
      "rond": 5459,
      "roşii": 5460,
      "lăsate": 5461,
      "mbată": 5462,
      "maica": 5463,
      "lire": 5464,
      "lită": 5465,
      "lira": 5466,
      "licuri": 5467,
      "lilia": 5468,
      "ştea": 5469,
      "pain": 5470,
      "patemi": 5471,
      "sii": 5472,
      "ntrista": 5473,
      "ntâia": 5474,
      "Cad": 5475,
      "fira": 5476,
      "fiii": 5477,
      "Cezarul": 5478,
      "Căpri": 5479,
      "Călin": 5480,
      "Cămile": 5481,
      "Căpita": 5482,
      "prince": 5483,
      "prinse": 5484,
      "meaza": 5485,
      "zăresc": 5486,
      "zărită": 5487,
      "iuţi": 5488,
      "zeii": 5489,
      "bezi": 5490,
      "bează": 5491,
      "arăm": 5492,
      "bătea": 5493,
      "bătăi": 5494,
      "fare": 5495,
      "lunci": 5496,
      "luntre": 5497,
      "pută": 5498,
      "puru": 5499,
      "putut": 5500,
      "câtă": 5501,
      "câţi": 5502,
      "câie": 5503,
      "câini": 5504,
      "văp": 5505,
      "gilor": 5506,
      "lope": 5507,
      "lopată": 5508,
      "lovire": 5509,
      "dic": 5510,
      "dărâ": 5511,
      "eamă": 5512,
      "mânele": 5513,
      "ochire": 5514,
      "mpie": 5515,
      "mpline": 5516,
      "cându": 5517,
      "osul": 5518,
      "adunate": 5519,
      "culiţă": 5520,
      "năsi": 5521,
      "născu": 5522,
      "ales": 5523,
      "pol": 5524,
      "poie": 5525,
      "poli": 5526,
      "pomul": 5527,
      "poduri": 5528,
      "polei": 5529,
      "podele": 5530,
      "lâng": 5531,
      "tulp": 5532,
      "iubita": 5533,
      "iubiţii": 5534,
      "iubitul": 5535,
      "sului": 5536,
      "suliţi": 5537,
      "ţel": 5538,
      "ţetă": 5539,
      "zbâr": 5540,
      "torcând": 5541,
      "strămo": 5542,
      "străvezi": 5543,
      "strălucea": 5544,
      "străvezie": 5545,
      "nani": 5546,
      "naşte": 5547,
      "șter": 5548,
      "mint": 5549,
      "dare": 5550,
      "întâi": 5551,
      "întoarsă": 5552,
      "focu": 5553,
      "foșni": 5554,
      "dorinţă": 5555,
      "dorinţa": 5556,
      "ganul": 5557,
      "acei": 5558,
      "acelor": 5559,
      "acelui": 5560,
      "acesta": 5561,
      "acelea": 5562,
      "acelaşi": 5563,
      "vani": 5564,
      "mându": 5565,
      "știle": 5566,
      "știam": 5567,
      "stăi": 5568,
      "subsuoară": 5569,
      "floricele": 5570,
      "frunză": 5571,
      "frunţile": 5572,
      "voia": 5573,
      "voit": 5574,
      "Sentinelă": 5575,
      "sfâ": 5576,
      "râşneşte": 5577,
      "cerc": 5578,
      "cerne": 5579,
      "frumoși": 5580,
      "doina": 5581,
      "doresc": 5582,
      "vântu": 5583,
      "vântului": 5584,
      "iadul": 5585,
      "bradul": 5586,
      "intei": 5587,
      "voci": 5588,
      "vocea": 5589,
      "voiesc": 5590,
      "volupta": 5591,
      "voluptate": 5592,
      "partea": 5593,
      "negrele": 5594,
      "negurile": 5595,
      "vorul": 5596,
      "copilei": 5597,
      "nicie": 5598,
      "niciun": 5599,
      "muritor": 5600,
      "deauna": 5601,
      "mute": 5602,
      "mutate": 5603,
      "apte": 5604,
      "aplau": 5605,
      "buru": 5606,
      "busui": 5607,
      "despe": 5608,
      "desmiardă": 5609,
      "Susp": 5610,
      "Suveni": 5611,
      "Dup": 5612,
      "Ducând": 5613,
      "visam": 5614,
      "viscole": 5615,
      "stelei": 5616,
      "stelelor": 5617,
      "arama": 5618,
      "trăiesc": 5619,
      "noştri": 5620,
      "vesele": 5621,
      "fură": 5622,
      "fume": 5623,
      "relei": 5624,
      "Nistru": 5625,
      "Nilului": 5626,
      "topi": 5627,
      "topesc": 5628,
      "lucii": 5629,
      "lucioase": 5630,
      "lucitori": 5631,
      "Alt": 5632,
      "Alţii": 5633,
      "turând": 5634,
      "turbu": 5635,
      "turbată": 5636,
      "turnuri": 5637,
      "calde": 5638,
      "porumb": 5639,
      "porneşte": 5640,
      "porcela": 5641,
      "portret": 5642,
      "îngerilor": 5643,
      "preoţi": 5644,
      "prefăcut": 5645,
      "pretutindeni": 5646,
      "durerii": 5647,
      "dureroasă": 5648,
      "rândul": 5649,
      "grăia": 5650,
      "Mările": 5651,
      "chef": 5652,
      "chemarea": 5653,
      "noianul": 5654,
      "nalţi": 5655,
      "Păsă": 5656,
      "Pământul": 5657,
      "fiecare": 5658,
      "pâne": 5659,
      "pânze": 5660,
      "pânea": 5661,
      "pântec": 5662,
      "plecând": 5663,
      "pletele": 5664,
      "plecată": 5665,
      "plecau": 5666,
      "pleoape": 5667,
      "cântătoare": 5668,
      "cântările": 5669,
      "crucii": 5670,
      "fala": 5671,
      "fericiri": 5672,
      "fericirei": 5673,
      "astei": 5674,
      "vina": 5675,
      "ninsori": 5676,
      "ducem": 5677,
      "gurile": 5678,
      "stinca": 5679,
      "stinse": 5680,
      "cort": 5681,
      "paloş": 5682,
      "darin": 5683,
      "amorţit": 5684,
      "!...“": 5685,
      "murind": 5686,
      "ncetul": 5687,
      "ncetare": 5688,
      "ncearcă": 5689,
      "nceput": 5690,
      "Totul": 5691,
      "Totuși": 5692,
      "roade": 5693,
      "adâncul": 5694,
      "antică": 5695,
      "antice": 5696,
      "france": 5697,
      "lându": 5698,
      "plane": 5699,
      "numeri": 5700,
      "Negri": 5701,
      "Negru": 5702,
      "patu": 5703,
      "patrie": 5704,
      "Lucind": 5705,
      "Lupii": 5706,
      "nopţilor": 5707,
      "curcu": 5708,
      "curme": 5709,
      "curgând": 5710,
      "curteni": 5711,
      "privim": 5712,
      "privit": 5713,
      "Tremur": 5714,
      "marmuri": 5715,
      "uşurele": 5716,
      "simţiţi": 5717,
      "simţitoare": 5718,
      "sunătoare": 5719,
      "sunător": 5720,
      "Nicio": 5721,
      "Răz": 5722,
      "Rătă": 5723,
      "Răsar": 5724,
      "Răsări": 5725,
      "Răsai": 5726,
      "sfântului": 5727,
      "Dumnezeul": 5728,
      "izbi": 5729,
      "izbeşte": 5730,
      "mpără": 5731,
      "mpăra": 5732,
      "mpăcată": 5733,
      "ndri": 5734,
      "scumpul": 5735,
      "măria": 5736,
      "măriri": 5737,
      "Copii": 5738,
      "Milcov": 5739,
      "vederea": 5740,
      "Printre": 5741,
      "aprind": 5742,
      "plutea": 5743,
      "plutește": 5744,
      "umed": 5745,
      "începu": 5746,
      "faceţi": 5747,
      "Ard": 5748,
      "Argin": 5749,
      "plăce": 5750,
      "pătrunză": 5751,
      "pătrundă": 5752,
      "Făt": 5753,
      "juca": 5754,
      "jumă": 5755,
      "Maica": 5756,
      "duioasa": 5757,
      "Roş": 5758,
      "apele": 5759,
      "apelor": 5760,
      "granit": 5761,
      "ridici": 5762,
      "ridicul": 5763,
      "ridicat": 5764,
      "gingaşul": 5765,
      "gingaşele": 5766,
      "Cinel": 5767,
      "RICA": 5768,
      "aveau": 5769,
      "aveai": 5770,
      "doisprezece": 5771,
      "mersul": 5772,
      "coane": 5773,
      "cineva": 5774,
      "soarbe": 5775,
      "depărta": 5776,
      "depărtate": 5777,
      "scap": 5778,
      "răsplată": 5779,
      "răspândi": 5780,
      "coloane": 5781,
      "colnice": 5782,
      "românii": 5783,
      "românească": 5784,
      "ntunecă": 5785,
      "ntunecat": 5786,
      "ntuneric": 5787,
      "poete": 5788,
      "poetul": 5789,
      "arunca": 5790,
      "Atun": 5791,
      "Atâta": 5792,
      "Priveşte": 5793,
      "Privindu": 5794,
      "Primăvara": 5795,
      "oraşi": 5796,
      "iubeşti": 5797,
      "iubești": 5798,
      "bătrânii": 5799,
      "plângea": 5800,
      "plângeri": 5801,
      "domnească": 5802,
      "malu": 5803,
      "tatăl": 5804,
      "călătorul": 5805,
      "vestejeşte": 5806,
      "gândiri": 5807,
      "uieşte": 5808,
      "tăiat": 5809,
      "strită": 5810,
      "cheagă": 5811,
      "sângele": 5812,
      "aurie": 5813,
      "apără": 5814,
      "răsărită": 5815,
      "ferbe": 5816,
      "cântau": 5817,
      "ntreb": 5818,
      "ntrec": 5819,
      "ghează": 5820,
      "Virtu": 5821,
      "Victor": 5822,
      "Vino": 5823,
      "profe": 5824,
      "satul": 5825,
      "sprinti": 5826,
      "gândurilor": 5827,
      "pierzi": 5828,
      "suspinuri": 5829,
      "ORA": 5830,
      "ORII": 5831,
      "linişti": 5832,
      "fiică": 5833,
      "câteodată": 5834,
      "Ochiul": 5835,
      "Ochişorii": 5836,
      "boul": 5837,
      "bobo": 5838,
      "sperare": 5839,
      "şesc": 5840,
      "mișcarea": 5841,
      "strâng": 5842,
      "........................................................": 5843,
      "Cio": 5844,
      "Ciri": 5845,
      "legănat": 5846,
      "răpită": 5847,
      "azid": 5848,
      "blândeţe": 5849,
      "nuntă": 5850,
      "purpură": 5851,
      "ţintiri": 5852,
      "deştepta": 5853,
      "tainica": 5854,
      "geana": 5855,
      "duhul": 5856,
      "tinerel": 5857,
      "tinereţi": 5858,
      "drumu": 5859,
      "jește": 5860,
      "uitarăm": 5861,
      "creștetele": 5862,
      "leagănul": 5863,
      "zâmbirea": 5864,
      "Marea": 5865,
      "uitării": 5866,
      "cârma": 5867,
      "cârja": 5868,
      "străinu": 5869,
      "flamura": 5870,
      "furnici": 5871,
      "împodo": 5872,
      "împlinit": 5873,
      "şate": 5874,
      "primăveri": 5875,
      "puteri": 5876,
      "INA": 5877,
      "clopo": 5878,
      "clopote": 5879,
      "ptatea": 5880,
      "voarele": 5881,
      "trecură": 5882,
      "voinicel": 5883,
      "voinicele": 5884,
      "ascunsă": 5885,
      "Merge": 5886,
      "avu": 5887,
      "având": 5888,
      "visez": 5889,
      "visezi": 5890,
      "rozelor": 5891,
      "credem": 5892,
      "slăveşte": 5893,
      "surd": 5894,
      "concer": 5895,
      "ntinderea": 5896,
      "argintoase": 5897,
      "strălucite": 5898,
      "strălucitoare": 5899,
      "vorbesc": 5900,
      "mărgărită": 5901,
      "Facu": 5902,
      "Fusu": 5903,
      "aceasta": 5904,
      "frig": 5905,
      "gonind": 5906,
      "hoţii": 5907,
      "sorioare": 5908,
      "trufie": 5909,
      "înflorire": 5910,
      "rămâie": 5911,
      "păsările": 5912,
      "gemet": 5913,
      "fecioare": 5914,
      "feciori": 5915,
      "fecioresc": 5916,
      "ROMAN": 5917,
      "RONDE": 5918,
      "Revarsă": 5919,
      "aduceţi": 5920,
      "bunuri": 5921,
      "călcâie": 5922,
      "uitau": 5923,
      "adorat": 5924,
      "adormea": 5925,
      "mândruliţă": 5926,
      "mergeam": 5927,
      "Uitând": 5928,
      "Uimit": 5929,
      "Zbor": 5930,
      "Zburând": 5931,
      "fluier": 5932,
      "grija": 5933,
      "sunetul": 5934,
      "ușa": 5935,
      "împără": 5936,
      "împărăţie": 5937,
      "părete": 5938,
      "păreţi": 5939,
      "ziorilor": 5940,
      "trecători": 5941,
      "ţărmul": 5942,
      "libertăţei": 5943,
      "trăiţi": 5944,
      "Chi": 5945,
      "Poveste": 5946,
      "dealul": 5947,
      "ceriul": 5948,
      "armăsari": 5949,
      "nemuritor": 5950,
      "nemurirei": 5951,
      "viteji": 5952,
      "adao": 5953,
      "legănare": 5954,
      "Moldovo": 5955,
      "Frunza": 5956,
      "Lido": 5957,
      "Viaţă": 5958,
      "blondă": 5959,
      "puii": 5960,
      "pereche": 5961,
      "roșie": 5962,
      "parfumată": 5963,
      "Copila": 5964,
      "Copilei": 5965,
      "Copiliţa": 5966,
      "Copilaşii": 5967,
      "etern": 5968,
      "eternă": 5969,
      "forme": 5970,
      "fântân": 5971,
      "nţeles": 5972,
      "nţelese": 5973,
      "nţelegi": 5974,
      "omului": 5975,
      "smerit": 5976,
      "smerită": 5977,
      "zugrăvește": 5978,
      "sens": 5979,
      "senine": 5980,
      "dumnezeire": 5981,
      "dimineaţa": 5982,
      "buzele": 5983,
      "Veneţio": 5984,
      "fugar": 5985,
      "sprinteni": 5986,
      "flăcăi": 5987,
      "Marc": 5988,
      "Strălucind": 5989,
      "gâci": 5990,
      "gâtu": 5991,
      "poată": 5992,
      "poame": 5993,
      "păreau": 5994,
      "Românul": 5995,
      "fantasti": 5996,
      "fantastic": 5997,
      "Frumoasa": 5998,
      "Plâng": 5999,
      "Plângea": 6000,
      "giură": 6001,
      "omenirea": 6002,
      "pintr": 6003,
      "vuieşte": 6004,
      "ÎNGER": 6005,
      "caută": 6006,
      "atrage": 6007,
      "meazănoapte": 6008,
      "întinse": 6009,
      "întindea": 6010,
      "întinzând": 6011,
      "brazdă": 6012,
      "voieşti": 6013,
      "copilandru": 6014,
      "Lung": 6015,
      "Lunca": 6016,
      "Singura": 6017,
      "greier": 6018,
      "galbenele": 6019,
      "groaza": 6020,
      "soro": 6021,
      "sorţii": 6022,
      "slab": 6023,
      "scoţând": 6024,
      "spiră": 6025,
      "spicul": 6026,
      "trage": 6027,
      "îmbată": 6028,
      "îmbrăţi": 6029,
      "alungau": 6030,
      "luptat": 6031,
      "rugăciuni": 6032,
      "vestită": 6033,
      "bărbă": 6034,
      "privească": 6035,
      "pustiit": 6036,
      "pustiiul": 6037,
      "schimbată": 6038,
      "Mâna": 6039,
      "Pici": 6040,
      "Pitpala": 6041,
      "doamna": 6042,
      "glob": 6043,
      "glorii": 6044,
      "lunecând": 6045,
      "săgeţi": 6046,
      "săgeţile": 6047,
      "ieslea": 6048,
      "genunchii": 6049,
      "cosiţe": 6050,
      "dispar": 6051,
      "alerga": 6052,
      "povestea": 6053,
      "sufleteşti": 6054,
      "sfintei": 6055,
      "Simte": 6056,
      "Iubiţi": 6057,
      "Mândri": 6058,
      "Mândră": 6059,
      "icoană": 6060,
      "icoana": 6061,
      "lţat": 6062,
      "omenești": 6063,
      "smălţ": 6064,
      "femeia": 6065,
      "mbatat": 6066,
      "cumpăna": 6067,
      "pustiul": 6068,
      "Coroanele": 6069,
      "DOINA": 6070,
      "Elenă": 6071,
      "Fulger": 6072,
      "MĂRGĂ": 6073,
      "Nouă": 6074,
      "aerul": 6075,
      "largi": 6076,
      "nchid": 6077,
      "vânăt": 6078,
      "Ţipă": 6079,
      "neclintire": 6080,
      "lipită": 6081,
      "ntâlni": 6082,
      "priete": 6083,
      "răspund": 6084,
      "Cânticul": 6085,
      "MÂNT": 6086,
      "Pase": 6087,
      "aștept": 6088,
      "nflorită": 6089,
      "solzii": 6090,
      "vrăji": 6091,
      "vrăjește": 6092,
      "însuţi": 6093,
      "însuşi": 6094,
      "îndrăgi": 6095,
      "săracă": 6096,
      "mijlocul": 6097,
      "misteruri": 6098,
      "mizerii": 6099,
      "mizeria": 6100,
      "orizonuri": 6101,
      "viteazul": 6102,
      "şterge": 6103,
      "vălite": 6104,
      "vălită": 6105,
      "culegem": 6106,
      "veselitori": 6107,
      "perdută": 6108,
      "Braţ": 6109,
      "CÂND": 6110,
      "Oaspe": 6111,
      "POVE": 6112,
      "cintec": 6113,
      "joace": 6114,
      "armonia": 6115,
      "răsai": 6116,
      "răsară": 6117,
      "semeţi": 6118,
      "mbrăcat": 6119,
      "limpezi": 6120,
      "Călător": 6121,
      "frumuşică": 6122,
      "luminii": 6123,
      "potopul": 6124,
      "oglindea": 6125,
      "duioaselor": 6126,
      "coborî": 6127,
      "Dragostea": 6128,
      "pierdute": 6129,
      "pierdută": 6130,
      "Curg": 6131,
      "Curând": 6132,
      "PĂSĂ": 6133,
      "Plutind": 6134,
      "Sânul": 6135,
      "crăiasa": 6136,
      "pândă": 6137,
      "necunoscut": 6138,
      "surâsul": 6139,
      "nălţă": 6140,
      "negrului": 6141,
      "vrednici": 6142,
      "vrednic": 6143,
      "Vesel": 6144,
      "Vesela": 6145,
      "Alunece": 6146,
      "Alunecă": 6147,
      "Alunecând": 6148,
      "liniștit": 6149,
      "liniștită": 6150,
      "Pustie": 6151,
      "blestem": 6152,
      "Inimioara": 6153,
      "Raia": 6154,
      "Raiul": 6155,
      "URILE": 6156,
      "jertfi": 6157,
      "nţui": 6158,
      "otel": 6159,
      "plouă": 6160,
      "plopii": 6161,
      "sfera": 6162,
      "întors": 6163,
      "cufunda": 6164,
      "cufundat": 6165,
      "rătnic": 6166,
      "cariul": 6167,
      "putinţă": 6168,
      "gigantici": 6169,
      "tulburată": 6170,
      "străinătate": 6171,
      "cristal": 6172,
      "tovarăşi": 6173,
      "românesc": 6174,
      "fermecat": 6175,
      "scuturau": 6176,
      "flacări": 6177,
      "renviere": 6178,
      "mângăios": 6179,
      "Ascultă": 6180,
      "CIUN": 6181,
      "Clopot": 6182,
      "GON": 6183,
      "croncă": 6184,
      "istoriei": 6185,
      "deșer": 6186,
      "descânta": 6187,
      "lebădă": 6188,
      "înfocat": 6189,
      "castelul": 6190,
      "altiţă": 6191,
      "nisipul": 6192,
      "trezită": 6193,
      "ating": 6194,
      "ntorcea": 6195,
      "giulgi": 6196,
      "năluca": 6197,
      "gândăceii": 6198,
      "singuratic": 6199,
      "moşie": 6200,
      "pulbere": 6201,
      "pulberea": 6202,
      "isvoarele": 6203,
      "poiană": 6204,
      "barbari": 6205,
      "mâhnire": 6206,
      "vâjâieşte": 6207,
      "Cântaţi": 6208,
      "Maria": 6209,
      "Paris": 6210,
      "Parisul": 6211,
      "Steaua": 6212,
      "Surioara": 6213,
      "Tânăr": 6214,
      "cinci": 6215,
      "mlădi": 6216,
      "ncoronată": 6217,
      "oseminte": 6218,
      "oţel": 6219,
      "tângui": 6220,
      "insule": 6221,
      "dedicat": 6222,
      "deoparte": 6223,
      "desprinde": 6224,
      "îngheţ": 6225,
      "oaspeţi": 6226,
      "tămâie": 6227,
      "pedep": 6228,
      "lucruri": 6229,
      "maghia": 6230,
      "maghiară": 6231,
      "cocostâr": 6232,
      "copac": 6233,
      "dușmanii": 6234,
      "atârnă": 6235,
      "atârna": 6236,
      "amintirii": 6237,
      "feerie": 6238,
      "puşca": 6239,
      "norocu": 6240,
      "Luceafărul": 6241,
      "gândești": 6242,
      "propria": 6243,
      "inspiră": 6244,
      "stăpânitor": 6245,
      "azvârle": 6246,
      "Bătrânul": 6247,
      "trandafi": 6248,
      "trandafiri": 6249,
      "Crengile": 6250,
      "Drăgă": 6251,
      "Ridică": 6252,
      "Trupu": 6253,
      "Zburător": 6254,
      "dungă": 6255,
      "fuior": 6256,
      "grindă": 6257,
      "humă": 6258,
      "hrăneşte": 6259,
      "nveselea": 6260,
      "schinte": 6261,
      "ârâind": 6262,
      "înlănţui": 6263,
      "melodi": 6264,
      "searbăd": 6265,
      "tabără": 6266,
      "cămeşă": 6267,
      "cărunţi": 6268,
      "nevastă": 6269,
      "stejărel": 6270,
      "visătoare": 6271,
      "Întinde": 6272,
      "Călcând": 6273,
      "pricepe": 6274,
      "diadem": 6275,
      "năzdrăva": 6276,
      "ţesut": 6277,
      "minciuna": 6278,
      "întâlneşte": 6279,
      "vaiet": 6280,
      "Lacrimile": 6281,
      "Păstorul": 6282,
      "văzute": 6283,
      "Coborî": 6284,
      "fărmecătoare": 6285,
      "drăguţă": 6286,
      "sprintinele": 6287,
      "bulgări": 6288,
      "împinse": 6289,
      "talazuri": 6290,
      "candelă": 6291,
      "VENEŢI": 6292,
      "CODRU": 6293,
      "îndrăzne": 6294,
      "răsturnat": 6295,
      "şoimuleţi": 6296,
      "Adriatică": 6297,
      "Aştept": 6298,
      "Amorul": 6299,
      "Baiazid": 6300,
      "Cloanţa": 6301,
      "Fanta": 6302,
      "Franţia": 6303,
      "Gâci": 6304,
      "Groza": 6305,
      "Gloria": 6306,
      "Intră": 6307,
      "Scuturând": 6308,
      "Schimbă": 6309,
      "Sburătorul": 6310,
      "asemenea": 6311,
      "dunărene": 6312,
      "isteţ": 6313,
      "ndurare": 6314,
      "nverzeşte": 6315,
      "posomor": 6316,
      "vândut": 6317,
      "Şterge": 6318,
      "rădăcină": 6319,
      "răgușit": 6320,
      "păinjeni": 6321,
      "tirani": 6322,
      "sclipesc": 6323,
      "sclipitoare": 6324,
      "pizm": 6325,
      "prevestitor": 6326,
      "Părinte": 6327,
      "privighetoarea": 6328,
      "ndrăge": 6329,
      "graţioasă": 6330,
      "umflate": 6331,
      "Fericirea": 6332,
      "ROZE": 6333,
      "Bistriţa": 6334,
      "Credinţa": 6335,
      "Biondinetă": 6336,
      "sărbătoare": 6337,
      "fâlfâie": 6338,
      "Aerul": 6339,
      "Corăbii": 6340,
      "John": 6341,
      "Niniţa": 6342,
      "Oliolio": 6343,
      "Piaţetă": 6344,
      "Sultanul": 6345,
      "Sculaţi": 6346,
      "evla": 6347,
      "exi": 6348,
      "iluzii": 6349,
      "ndulcitoare": 6350,
      "nfricoşată": 6351,
      "sfadă": 6352,
      "smarald": 6353,
      "umilit": 6354,
      "încheie": 6355,
      "înaintează": 6356,
      "nestrămutate": 6357,
      "măiastră": 6358,
      "pălărie": 6359,
      "suprem": 6360,
      "succede": 6361,
      "comoara": 6362,
      "liliacul": 6363,
      "aceleași": 6364,
      "voluptatea": 6365,
      "porcelană": 6366,
      "RONDELUL": 6367,
      "MĂRGĂRI": 6368,
      "!..": 6369,
      "',": 6370,
      ".)": 6371,
      ".»": 6372,
      ":\"": 6373,
      "?»": 6374,
      "AU": 6375,
      "Ab": 6376,
      "Ap": 6377,
      "Ari": 6378,
      "Acu": 6379,
      "Ară": 6380,
      "Amă": 6381,
      "Asi": 6382,
      "Adă": 6383,
      "Ana": 6384,
      "Atot": 6385,
      "Aște": 6386,
      "Avea": 6387,
      "Ajun": 6388,
      "Apus": 6389,
      "Aşe": 6390,
      "Aminte": 6391,
      "Asupra": 6392,
      "Asur": 6393,
      "Aduci": 6394,
      "Adormind": 6395,
      "Be": 6396,
      "Bo": 6397,
      "Boa": 6398,
      "Blă": 6399,
      "Bol": 6400,
      "BAR": 6401,
      "Balta": 6402,
      "BRA": 6403,
      "Barcă": 6404,
      "Beţi": 6405,
      "CH": 6406,
      "Cun": 6407,
      "Cra": 6408,
      "Cru": 6409,
      "Coi": 6410,
      "Cau": 6411,
      "CUL": 6412,
      "Creşte": 6413,
      "Cinta": 6414,
      "CRĂ": 6415,
      "Crini": 6416,
      "CINE": 6417,
      "Crivă": 6418,
      "DU": 6419,
      "Dând": 6420,
      "Dru": 6421,
      "Dau": 6422,
      "Dale": 6423,
      "Dare": 6424,
      "Dalbe": 6425,
      "DRI": 6426,
      "DOR": 6427,
      "DRII": 6428,
      "EA": 6429,
      "Em": 6430,
      "Eur": 6431,
      "Eli": 6432,
      "Elei": 6433,
      "FI": 6434,
      "FL": 6435,
      "Fur": 6436,
      "Flo": 6437,
      "Fer": 6438,
      "Fală": 6439,
      "Farme": 6440,
      "Fiară": 6441,
      "Freamă": 6442,
      "FRU": 6443,
      "FLO": 6444,
      "GA": 6445,
      "GH": 6446,
      "GI": 6447,
      "Gă": 6448,
      "Gri": 6449,
      "Gâr": 6450,
      "Gură": 6451,
      "Ghe": 6452,
      "HO": 6453,
      "Ho": 6454,
      "HORA": 6455,
      "Iam": 6456,
      "Ido": 6457,
      "Ilea": 6458,
      "IAN": 6459,
      "Ispa": 6460,
      "IREI": 6461,
      "IŢA": 6462,
      "Jun": 6463,
      "Jur": 6464,
      "JLO": 6465,
      "Lat": 6466,
      "LOA": 6467,
      "LÂN": 6468,
      "Locul": 6469,
      "LUN": 6470,
      "LDO": 6471,
      "Mânt": 6472,
      "MUL": 6473,
      "Man": 6474,
      "MAR": 6475,
      "MUN": 6476,
      "NU": 6477,
      "NUL": 6478,
      "Naltă": 6479,
      "Naşte": 6480,
      "NCE": 6481,
      "Of": 6482,
      "Ol": 6483,
      "Opt": 6484,
      "ORI": 6485,
      "Obră": 6486,
      "ODĂ": 6487,
      "Pui": 6488,
      "Pot": 6489,
      "Pale": 6490,
      "Pace": 6491,
      "Poate": 6492,
      "Put": 6493,
      "Pan": 6494,
      "PRI": 6495,
      "POR": 6496,
      "Papa": 6497,
      "Parc": 6498,
      "PTA": 6499,
      "Pala": 6500,
      "Roa": 6501,
      "Rume": 6502,
      "RTUL": 6503,
      "RTEA": 6504,
      "RNE": 6505,
      "RŢI": 6506,
      "RSI": 6507,
      "So": 6508,
      "St": 6509,
      "Sy": 6510,
      "Sie": 6511,
      "Spă": 6512,
      "Sti": 6513,
      "Spi": 6514,
      "Slă": 6515,
      "Stea": 6516,
      "Scri": 6517,
      "Sol": 6518,
      "SUL": 6519,
      "Salbă": 6520,
      "Strun": 6521,
      "Salba": 6522,
      "Strân": 6523,
      "Spun": 6524,
      "SIN": 6525,
      "Scăl": 6526,
      "Sfânt": 6527,
      "SUN": 6528,
      "STEA": 6529,
      "Scoate": 6530,
      "Sone": 6531,
      "To": 6532,
      "Tă": 6533,
      "Tine": 6534,
      "Tune": 6535,
      "Tei": 6536,
      "Tran": 6537,
      "Trist": 6538,
      "TRU": 6539,
      "TINE": 6540,
      "Unele": 6541,
      "Unei": 6542,
      "URSI": 6543,
      "VA": 6544,
      "Vrea": 6545,
      "Vâr": 6546,
      "Vol": 6547,
      "Vrând": 6548,
      "VUL": 6549,
      "VII": 6550,
      "VRE": 6551,
      "VIII": 6552,
      "VAL": 6553,
      "VOI": 6554,
      "Wil": 6555,
      "Ză": 6556,
      "Zbe": 6557,
      "Zace": 6558,
      "ZUL": 6559,
      "Zarea": 6560,
      "aie": 6561,
      "adu": 6562,
      "arele": 6563,
      "anume": 6564,
      "acade": 6565,
      "aţin": 6566,
      "amic": 6567,
      "asur": 6568,
      "abat": 6569,
      "adio": 6570,
      "boa": 6571,
      "bla": 6572,
      "buri": 6573,
      "bli": 6574,
      "boară": 6575,
      "bumb": 6576,
      "bon": 6577,
      "brele": 6578,
      "buna": 6579,
      "boale": 6580,
      "binţi": 6581,
      "brează": 6582,
      "ck": 6583,
      "ct": 6584,
      "cni": 6585,
      "ctul": 6586,
      "clină": 6587,
      "clare": 6588,
      "cnind": 6589,
      "doare": 6590,
      "doară": 6591,
      "dalb": 6592,
      "dalnic": 6593,
      "drui": 6594,
      "ez": 6595,
      "eţ": 6596,
      "eră": 6597,
      "eco": 6598,
      "egi": 6599,
      "epo": 6600,
      "far": 6601,
      "fta": 6602,
      "fat": 6603,
      "foar": 6604,
      "flor": 6605,
      "farul": 6606,
      "forul": 6607,
      "farmă": 6608,
      "faimă": 6609,
      "gun": 6610,
      "gmă": 6611,
      "gai": 6612,
      "gară": 6613,
      "grân": 6614,
      "gală": 6615,
      "giei": 6616,
      "gard": 6617,
      "groasă": 6618,
      "garo": 6619,
      "hla": 6620,
      "hnă": 6621,
      "hol": 6622,
      "hului": 6623,
      "hlău": 6624,
      "heii": 6625,
      "hunii": 6626,
      "ite": 6627,
      "ită": 6628,
      "imi": 6629,
      "ică": 6630,
      "ive": 6631,
      "ivi": 6632,
      "iţe": 6633,
      "ista": 6634,
      "ivise": 6635,
      "ideal": 6636,
      "idealuri": 6637,
      "isto": 6638,
      "jde": 6639,
      "jon": 6640,
      "juni": 6641,
      "jera": 6642,
      "jarul": 6643,
      "ly": 6644,
      "lta": 6645,
      "lbi": 6646,
      "ldă": 6647,
      "lba": 6648,
      "ltele": 6649,
      "lier": 6650,
      "lalte": 6651,
      "ldeş": 6652,
      "moa": 6653,
      "moi": 6654,
      "mara": 6655,
      "mnul": 6656,
      "moaie": 6657,
      "mpele": 6658,
      "mpărţi": 6659,
      "nând": 6660,
      "nini": 6661,
      "nlă": 6662,
      "nsi": 6663,
      "nda": 6664,
      "noate": 6665,
      "ncer": 6666,
      "nmor": 6667,
      "nmii": 6668,
      "ndui": 6669,
      "nţei": 6670,
      "ncrun": 6671,
      "nghe": 6672,
      "nghi": 6673,
      "ngheaţă": 6674,
      "nsuflă": 6675,
      "nsufla": 6676,
      "ndură": 6677,
      "ncapă": 6678,
      "ncăr": 6679,
      "ncunună": 6680,
      "ngăl": 6681,
      "nfrăţire": 6682,
      "ncoace": 6683,
      "nșală": 6684,
      "nceapă": 6685,
      "nclină": 6686,
      "osu": 6687,
      "ovă": 6688,
      "opo": 6689,
      "orei": 6690,
      "oche": 6691,
      "oţele": 6692,
      "otic": 6693,
      "olare": 6694,
      "ofete": 6695,
      "ocole": 6696,
      "pc": 6697,
      "pau": 6698,
      "pinte": 6699,
      "ptare": 6700,
      "ptele": 6701,
      "pina": 6702,
      "ptei": 6703,
      "pâl": 6704,
      "purile": 6705,
      "rne": 6706,
      "rcea": 6707,
      "rgin": 6708,
      "soi": 6709,
      "sini": 6710,
      "sos": 6711,
      "smu": 6712,
      "sno": 6713,
      "smele": 6714,
      "scui": 6715,
      "sfii": 6716,
      "sându": 6717,
      "smir": 6718,
      "scald": 6719,
      "tară": 6720,
      "tos": 6721,
      "top": 6722,
      "tara": 6723,
      "tuită": 6724,
      "uţă": 6725,
      "uind": 6726,
      "udă": 6727,
      "uţe": 6728,
      "urei": 6729,
      "udat": 6730,
      "umărul": 6731,
      "vori": 6732,
      "vinte": 6733,
      "vâl": 6734,
      "varul": 6735,
      "vatra": 6736,
      "vuia": 6737,
      "vuind": 6738,
      "zo": 6739,
      "zar": 6740,
      "zor": 6741,
      "zme": 6742,
      "zdu": 6743,
      "zbate": 6744,
      "zdre": 6745,
      "zdru": 6746,
      "zodi": 6747,
      "zduhul": 6748,
      "Împlu": 6749,
      "âră": 6750,
      "împi": 6751,
      "împa": 6752,
      "împrejur": 6753,
      "Şoi": 6754,
      "Şoap": 6755,
      "Şer": 6756,
      "şoare": 6757,
      "şaţi": 6758,
      "şură": 6759,
      "şcate": 6760,
      "şească": 6761,
      "Ţe": 6762,
      "ŢUL": 6763,
      "ŢARĂ": 6764,
      "ţâ": 6765,
      "ţân": 6766,
      "ţuri": 6767,
      "ţur": 6768,
      "Șe": 6769,
      "Ște": 6770,
      "Șop": 6771,
      "șcă": 6772,
      "șoare": 6773,
      "șco": 6774,
      "șind": 6775,
      "șer": 6776,
      "ștate": 6777,
      "șina": 6778,
      "școa": 6779,
      "șuie": 6780,
      "șopo": 6781,
      "reur": 6782,
      "resp": 6783,
      "reţii": 6784,
      "rena": 6785,
      "reche": 6786,
      "reţele": 6787,
      "renume": 6788,
      "refle": 6789,
      "renei": 6790,
      "recunoa": 6791,
      "rezemat": 6792,
      "reînviere": 6793,
      "inste": 6794,
      "inţii": 6795,
      "inţe": 6796,
      "inare": 6797,
      "intr": 6798,
      "infer": 6799,
      "intin": 6800,
      "insuflă": 6801,
      "infini": 6802,
      "riş": 6803,
      "rire": 6804,
      "rite": 6805,
      "rivi": 6806,
      "riată": 6807,
      "tece": 6808,
      "tezi": 6809,
      "team": 6810,
      "temp": 6811,
      "templu": 6812,
      "deci": 6813,
      "deşi": 6814,
      "deai": 6815,
      "deli": 6816,
      "deiu": 6817,
      "dezb": 6818,
      "deuna": 6819,
      "deplin": 6820,
      "deolaltă": 6821,
      "deodat": 6822,
      "desfrân": 6823,
      "dejde": 6824,
      "ânde": 6825,
      "ulbe": 6826,
      "ulind": 6827,
      "uliţi": 6828,
      "ultima": 6829,
      "uns": 6830,
      "unse": 6831,
      "unat": 6832,
      "ungh": 6833,
      "unoaie": 6834,
      "unoaia": 6835,
      "celu": 6836,
      "ceai": 6837,
      "ceată": 6838,
      "cește": 6839,
      "ceva": 6840,
      "cetelor": 6841,
      "cetăţi": 6842,
      "ceartă": 6843,
      "art": 6844,
      "arti": 6845,
      "arat": 6846,
      "arguri": 6847,
      "arcele": 6848,
      "arzând": 6849,
      "arcate": 6850,
      "arzător": 6851,
      "arborii": 6852,
      "lebe": 6853,
      "letare": 6854,
      "lepezi": 6855,
      "lesne": 6856,
      "legate": 6857,
      "înco": 6858,
      "îndu": 6859,
      "înfă": 6860,
      "încân": 6861,
      "încer": 6862,
      "înver": 6863,
      "îngră": 6864,
      "înso": 6865,
      "învechi": 6866,
      "îngâ": 6867,
      "însemn": 6868,
      "încap": 6869,
      "înşiră": 6870,
      "încântare": 6871,
      "încapă": 6872,
      "însemne": 6873,
      "îngăl": 6874,
      "îngrămă": 6875,
      "îndreptate": 6876,
      "învaţă": 6877,
      "înșală": 6878,
      "încâl": 6879,
      "încheagă": 6880,
      "orche": 6881,
      "cură": 6882,
      "cupă": 6883,
      "cusu": 6884,
      "cuvi": 6885,
      "cuco": 6886,
      "cupele": 6887,
      "cucoane": 6888,
      "tără": 6889,
      "tăcea": 6890,
      "tăbă": 6891,
      "tător": 6892,
      "tăcute": 6893,
      "tăreţele": 6894,
      "pei": 6895,
      "peni": 6896,
      "petea": 6897,
      "peşti": 6898,
      "pentr": 6899,
      "penele": 6900,
      "pescu": 6901,
      "perind": 6902,
      "peatră": 6903,
      "peardă": 6904,
      "peire": 6905,
      "răul": 6906,
      "răzi": 6907,
      "răvi": 6908,
      "răchi": 6909,
      "răsun": 6910,
      "răsuflet": 6911,
      "răsco": 6912,
      "răsuna": 6913,
      "caş": 6914,
      "calu": 6915,
      "canul": 6916,
      "calare": 6917,
      "casei": 6918,
      "capete": 6919,
      "mete": 6920,
      "mese": 6921,
      "meta": 6922,
      "meie": 6923,
      "meşi": 6924,
      "mesc": 6925,
      "ment": 6926,
      "medi": 6927,
      "merei": 6928,
      "mecat": 6929,
      "menind": 6930,
      "meric": 6931,
      "sec": 6932,
      "ses": 6933,
      "seţi": 6934,
      "semă": 6935,
      "seste": 6936,
      "seau": 6937,
      "setea": 6938,
      "serei": 6939,
      "seara": 6940,
      "sentinelă": 6941,
      "alc": 6942,
      "alu": 6943,
      "alţi": 6944,
      "altu": 6945,
      "altare": 6946,
      "aluni": 6947,
      "albii": 6948,
      "săli": 6949,
      "sărit": 6950,
      "săptă": 6951,
      "săcară": 6952,
      "rac": 6953,
      "raş": 6954,
      "rari": 6955,
      "rale": 6956,
      "rapi": 6957,
      "raţii": 6958,
      "raţe": 6959,
      "rator": 6960,
      "ranele": 6961,
      "ratic": 6962,
      "ramură": 6963,
      "ragiu": 6964,
      "ramura": 6965,
      "lai": 6966,
      "laz": 6967,
      "laur": 6968,
      "labe": 6969,
      "lampe": 6970,
      "lacului": 6971,
      "lampele": 6972,
      "tam": 6973,
      "tata": 6974,
      "taci": 6975,
      "tati": 6976,
      "tacul": 6977,
      "tainici": 6978,
      "mia": 6979,
      "miri": 6980,
      "mide": 6981,
      "mica": 6982,
      "milor": 6983,
      "mirând": 6984,
      "misti": 6985,
      "micate": 6986,
      "miurg": 6987,
      "cia": 6988,
      "cif": 6989,
      "cică": 6990,
      "cioară": 6991,
      "cioasă": 6992,
      "ciocul": 6993,
      "cicoare": 6994,
      "ieu": 6995,
      "iele": 6996,
      "ieși": 6997,
      "ieșit": 6998,
      "ieşea": 6999,
      "căţi": 7000,
      "căru": 7001,
      "către": 7002,
      "căţe": 7003,
      "cătând": 7004,
      "căzând": 7005,
      "căiesc": 7006,
      "cămila": 7007,
      "cădel": 7008,
      "cătăm": 7009,
      "cădere": 7010,
      "lugă": 7011,
      "lupi": 7012,
      "luţă": 7013,
      "maie": 7014,
      "mani": 7015,
      "maur": 7016,
      "manul": 7017,
      "magie": 7018,
      "stor": 7019,
      "strea": 7020,
      "stur": 7021,
      "stos": 7022,
      "stână": 7023,
      "strele": 7024,
      "stoale": 7025,
      "nem": 7026,
      "nece": 7027,
      "neste": 7028,
      "nero": 7029,
      "nelor": 7030,
      "netul": 7031,
      "neferi": 7032,
      "nence": 7033,
      "nevăz": 7034,
      "nesti": 7035,
      "nemer": 7036,
      "neferice": 7037,
      "neveste": 7038,
      "nentre": 7039,
      "netează": 7040,
      "nevăzut": 7041,
      "nesimţire": 7042,
      "nesfâr": 7043,
      "nedreaptă": 7044,
      "neoprit": 7045,
      "nepătrunsă": 7046,
      "nesimţitor": 7047,
      "necaz": 7048,
      "nezărită": 7049,
      "nempăcată": 7050,
      "nenţelese": 7051,
      "nevăzute": 7052,
      "nemeşi": 7053,
      "rupă": 7054,
      "rupi": 7055,
      "rumeni": 7056,
      "ruina": 7057,
      "rugiul": 7058,
      "rupându": 7059,
      "rubin": 7060,
      "ruşine": 7061,
      "ven": 7062,
      "veș": 7063,
      "vedin": 7064,
      "vechea": 7065,
      "veveri": 7066,
      "uriaș": 7067,
      "nim": 7068,
      "niul": 7069,
      "nimb": 7070,
      "nitoare": 7071,
      "niţe": 7072,
      "nicului": 7073,
      "şirul": 7074,
      "şiunde": 7075,
      "mărun": 7076,
      "mător": 7077,
      "măna": 7078,
      "măsuri": 7079,
      "mănun": 7080,
      "măsoară": 7081,
      "mătasa": 7082,
      "mălai": 7083,
      "păi": 7084,
      "păş": 7085,
      "păzi": 7086,
      "păsc": 7087,
      "păpu": 7088,
      "pănă": 7089,
      "pășe": 7090,
      "păcate": 7091,
      "părut": 7092,
      "oarei": 7093,
      "ster": 7094,
      "steri": 7095,
      "steme": 7096,
      "steli": 7097,
      "stește": 7098,
      "șir": 7099,
      "șire": 7100,
      "șită": 7101,
      "șică": 7102,
      "zite": 7103,
      "zită": 7104,
      "zitori": 7105,
      "zişul": 7106,
      "zimbrul": 7107,
      "sug": 7108,
      "sute": 7109,
      "sută": 7110,
      "sufl": 7111,
      "supt": 7112,
      "sufăr": 7113,
      "supune": 7114,
      "supte": 7115,
      "oricărui": 7116,
      "tia": 7117,
      "ticele": 7118,
      "tirile": 7119,
      "tișor": 7120,
      "gei": 7121,
      "get": 7122,
      "gepi": 7123,
      "gemând": 7124,
      "vil": 7125,
      "vide": 7126,
      "viat": 7127,
      "viţă": 7128,
      "vifor": 7129,
      "vicle": 7130,
      "visate": 7131,
      "victi": 7132,
      "videţi": 7133,
      "reaze": 7134,
      "reaţa": 7135,
      "reasca": 7136,
      "coţi": 7137,
      "cola": 7138,
      "colu": 7139,
      "comb": 7140,
      "cont": 7141,
      "conul": 7142,
      "cond": 7143,
      "coarde": 7144,
      "coseşte": 7145,
      "covani": 7146,
      "cojoace": 7147,
      "urind": 7148,
      "urlând": 7149,
      "urmări": 7150,
      "urora": 7151,
      "urgia": 7152,
      "urmeaza": 7153,
      "duie": 7154,
      "duind": 7155,
      "dumbra": 7156,
      "durează": 7157,
      "dina": 7158,
      "dină": 7159,
      "dincolo": 7160,
      "chipu": 7161,
      "oiu": 7162,
      "oile": 7163,
      "trele": 7164,
      "trebi": 7165,
      "treia": 7166,
      "tremuri": 7167,
      "tremu": 7168,
      "trepte": 7169,
      "tresari": 7170,
      "scând": 7171,
      "scară": 7172,
      "scrii": 7173,
      "scrân": 7174,
      "scrâşneşte": 7175,
      "Deci": 7176,
      "Deşi": 7177,
      "Deop": 7178,
      "Despre": 7179,
      "Demn": 7180,
      "Destul": 7181,
      "Demiurg": 7182,
      "atins": 7183,
      "atrini": 7184,
      "inime": 7185,
      "inimii": 7186,
      "găsea": 7187,
      "nui": 7188,
      "nufă": 7189,
      "nufăr": 7190,
      "pire": 7191,
      "pite": 7192,
      "pice": 7193,
      "pisc": 7194,
      "pido": 7195,
      "piaţă": 7196,
      "pişcate": 7197,
      "pistoale": 7198,
      "oarmă": 7199,
      "Pepe": 7200,
      "Petrea": 7201,
      "bile": 7202,
      "biruri": 7203,
      "birui": 7204,
      "auzul": 7205,
      "ţămim": 7206,
      "Înc": 7207,
      "Închi": 7208,
      "Înspre": 7209,
      "Încun": 7210,
      "Îndră": 7211,
      "Întin": 7212,
      "Înger": 7213,
      "Îndură": 7214,
      "Încăr": 7215,
      "Întreabă": 7216,
      "Înalţă": 7217,
      "...\"": 7218,
      "spini": 7219,
      "spată": 7220,
      "spare": 7221,
      "spală": 7222,
      "sprăvit": 7223,
      "spoială": 7224,
      "aia": 7225,
      "aiuri": 7226,
      "aicea": 7227,
      "aiurează": 7228,
      "aiurind": 7229,
      "uimea": 7230,
      "uimite": 7231,
      "amin": 7232,
      "amur": 7233,
      "Cucu": 7234,
      "Cupa": 7235,
      "Cutri": 7236,
      "Cuprins": 7237,
      "Cuvinte": 7238,
      "Curagiu": 7239,
      "Cupido": 7240,
      "feară": 7241,
      "ferul": 7242,
      "fetele": 7243,
      "ferească": 7244,
      "fearele": 7245,
      "Șiras": 7246,
      "ron": 7247,
      "roși": 7248,
      "robi": 7249,
      "rosi": 7250,
      "robii": 7251,
      "rozul": 7252,
      "rotindu": 7253,
      "lăi": 7254,
      "lăcea": 7255,
      "lăsând": 7256,
      "lănci": 7257,
      "lăsară": 7258,
      "lăsându": 7259,
      "lord": 7260,
      "mbar": 7261,
      "mbea": 7262,
      "maică": 7263,
      "maicei": 7264,
      "licu": 7265,
      "livadă": 7266,
      "lipea": 7267,
      "otrăvi": 7268,
      "ştează": 7269,
      "pari": 7270,
      "pasu": 7271,
      "pasc": 7272,
      "pază": 7273,
      "paze": 7274,
      "papu": 7275,
      "paște": 7276,
      "pago": 7277,
      "sita": 7278,
      "simplu": 7279,
      "ntâmp": 7280,
      "ntristă": 7281,
      "Cale": 7282,
      "unea": 7283,
      "fiţi": 7284,
      "filo": 7285,
      "fiare": 7286,
      "fiinta": 7287,
      "fildeş": 7288,
      "ture": 7289,
      "turu": 7290,
      "tufă": 7291,
      "tumul": 7292,
      "tuoase": 7293,
      "cumva": 7294,
      "cuminte": 7295,
      "cuminţi": 7296,
      "cumperi": 7297,
      "dului": 7298,
      "Ceru": 7299,
      "Ceruri": 7300,
      "Cetatea": 7301,
      "tean": 7302,
      "teasă": 7303,
      "Către": 7304,
      "Cărui": 7305,
      "prinţ": 7306,
      "prinsă": 7307,
      "prinzi": 7308,
      "printr": 7309,
      "ceata": 7310,
      "cească": 7311,
      "ceasuri": 7312,
      "zământ": 7313,
      "zători": 7314,
      "zăvorul": 7315,
      "zăbrele": 7316,
      "zeul": 7317,
      "besc": 7318,
      "bește": 7319,
      "bescuri": 7320,
      "beșică": 7321,
      "saţ": 7322,
      "sapă": 7323,
      "sagi": 7324,
      "satele": 7325,
      "sacră": 7326,
      "Săru": 7327,
      "Sămănă": 7328,
      "Sărac": 7329,
      "băl": 7330,
      "băţ": 7331,
      "bătaie": 7332,
      "băiete": 7333,
      "fag": 7334,
      "fane": 7335,
      "fael": 7336,
      "fapt": 7337,
      "fapte": 7338,
      "faşe": 7339,
      "fasura": 7340,
      "faptele": 7341,
      "favori": 7342,
      "prima": 7343,
      "priceapă": 7344,
      "luntrea": 7345,
      "puie": 7346,
      "pudrui": 7347,
      "câști": 7348,
      "vălit": 7349,
      "văieste": 7350,
      "gită": 7351,
      "gică": 7352,
      "logo": 7353,
      "lovind": 7354,
      "lonie": 7355,
      "lovește": 7356,
      "diră": 7357,
      "divine": 7358,
      "dispre": 7359,
      "distru": 7360,
      "discân": 7361,
      "distra": 7362,
      "divină": 7363,
      "dăr": 7364,
      "dări": 7365,
      "dălbi": 7366,
      "dătător": 7367,
      "ean": 7368,
      "eagă": 7369,
      "fărâ": 7370,
      "făptură": 7371,
      "mântare": 7372,
      "mâncat": 7373,
      "mântat": 7374,
      "mântată": 7375,
      "ochirea": 7376,
      "ochişorii": 7377,
      "mpinge": 7378,
      "mparte": 7379,
      "mpart": 7380,
      "ostat": 7381,
      "osândi": 7382,
      "bari": 7383,
      "barea": 7384,
      "banul": 7385,
      "bacan": 7386,
      "basmul": 7387,
      "mului": 7388,
      "adune": 7389,
      "adora": 7390,
      "admire": 7391,
      "admir": 7392,
      "adoarmă": 7393,
      "culmea": 7394,
      "culiţa": 7395,
      "nări": 7396,
      "năluce": 7397,
      "năstire": 7398,
      "alese": 7399,
      "pom": 7400,
      "pole": 7401,
      "post": 7402,
      "povară": 7403,
      "pocit": 7404,
      "potici": 7405,
      "podoa": 7406,
      "postul": 7407,
      "pocite": 7408,
      "lânga": 7409,
      "dulcei": 7410,
      "iubiţi": 7411,
      "iubitori": 7412,
      "sultanul": 7413,
      "ţese": 7414,
      "ţeam": 7415,
      "zbuci": 7416,
      "tort": 7417,
      "omoară": 7418,
      "rumpă": 7419,
      "luit": 7420,
      "străpun": 7421,
      "străbat": 7422,
      "nas": 7423,
      "naste": 7424,
      "nachi": 7425,
      "naţii": 7426,
      "nască": 7427,
      "napoi": 7428,
      "nagâ": 7429,
      "totdeauna": 7430,
      "totdeuna": 7431,
      "ştiai": 7432,
      "ştilor": 7433,
      "minţii": 7434,
      "minare": 7435,
      "mingii": 7436,
      "minută": 7437,
      "minunaţi": 7438,
      "Unind": 7439,
      "dafiri": 7440,
      "dacti": 7441,
      "întru": 7442,
      "întine": 7443,
      "foșnea": 7444,
      "elcovani": 7445,
      "cânii": 7446,
      "cânticul": 7447,
      "opinte": 7448,
      "oprească": 7449,
      "oprește": 7450,
      "opreste": 7451,
      "creș": 7452,
      "credea": 7453,
      "crescut": 7454,
      "creștea": 7455,
      "crezământ": 7456,
      "gândind": 7457,
      "gândului": 7458,
      "tinel": 7459,
      "gari": 7460,
      "gaţi": 7461,
      "acești": 7462,
      "vase": 7463,
      "vamă": 7464,
      "sufletească": 7465,
      "Lacul": 7466,
      "mândrei": 7467,
      "mândrele": 7468,
      "stătătoare": 7469,
      "voiu": 7470,
      "voioasa": 7471,
      "Seara": 7472,
      "sforă": 7473,
      "sfârâind": 7474,
      "umblă": 7475,
      "umbroase": 7476,
      "umblet": 7477,
      "râdă": 7478,
      "sânului": 7479,
      "cerce": 7480,
      "cerţi": 7481,
      "cerbi": 7482,
      "cercul": 7483,
      "vietei": 7484,
      "viers": 7485,
      "dob": 7486,
      "doini": 7487,
      "dogit": 7488,
      "moroacă": 7489,
      "stare": 7490,
      "staţi": 7491,
      "gure": 7492,
      "gustă": 7493,
      "dragei": 7494,
      "viata": 7495,
      "brav": 7496,
      "bravi": 7497,
      "intecă": 7498,
      "voce": 7499,
      "volupt": 7500,
      "para": 7501,
      "negurii": 7502,
      "neghi": 7503,
      "vorba": 7504,
      "vorbind": 7505,
      "nicia": 7506,
      "murire": 7507,
      "muritoare": 7508,
      "vreţi": 7509,
      "vreoda": 7510,
      "deasupră": 7511,
      "leană": 7512,
      "muce": 7513,
      "mume": 7514,
      "muste": 7515,
      "mustea": 7516,
      "apostat": 7517,
      "bubu": 7518,
      "buciu": 7519,
      "bujor": 7520,
      "buzdu": 7521,
      "bucăţi": 7522,
      "desro": 7523,
      "desmier": 7524,
      "desfaci": 7525,
      "desfasura": 7526,
      "Suspin": 7527,
      "aşez": 7528,
      "ptuit": 7529,
      "ptându": 7530,
      "viscolu": 7531,
      "simţii": 7532,
      "simţesc": 7533,
      "undele": 7534,
      "ginţi": 7535,
      "ghia": 7536,
      "ghiar": 7537,
      "pieptă": 7538,
      "arare": 7539,
      "arabescuri": 7540,
      "trăind": 7541,
      "trăia": 7542,
      "trăieşte": 7543,
      "note": 7544,
      "noua": 7545,
      "nobili": 7546,
      "vernă": 7547,
      "vergin": 7548,
      "vergină": 7549,
      "veselii": 7550,
      "Veţi": 7551,
      "Vedea": 7552,
      "Venea": 7553,
      "Vesti": 7554,
      "Venit": 7555,
      "Vechiul": 7556,
      "fure": 7557,
      "fuse": 7558,
      "fumul": 7559,
      "fusul": 7560,
      "fumuri": 7561,
      "furat": 7562,
      "furată": 7563,
      "fugarii": 7564,
      "plânse": 7565,
      "plânşi": 7566,
      "plânsu": 7567,
      "scăpă": 7568,
      "scăpa": 7569,
      "scăpată": 7570,
      "munca": 7571,
      "munci": 7572,
      "muntele": 7573,
      "munceşte": 7574,
      "topaze": 7575,
      "lucie": 7576,
      "lucitor": 7577,
      "Alb": 7578,
      "turme": 7579,
      "turma": 7580,
      "turna": 7581,
      "turbează": 7582,
      "albei": 7583,
      "pornit": 7584,
      "porţile": 7585,
      "pornită": 7586,
      "îngere": 7587,
      "îngeru": 7588,
      "îngenun": 7589,
      "îngereşti": 7590,
      "presuri": 7591,
      "codre": 7592,
      "durerilor": 7593,
      "vinete": 7594,
      "vineţi": 7595,
      "catarguri": 7596,
      "rându": 7597,
      "rândă": 7598,
      "rânduni": 7599,
      "grăiau": 7600,
      "Măr": 7601,
      "Măști": 7602,
      "Mărăc": 7603,
      "sărutau": 7604,
      "chem": 7605,
      "chemi": 7606,
      "chema": 7607,
      "chemare": 7608,
      "chezând": 7609,
      "Păre": 7610,
      "Păru": 7611,
      "Pământ": 7612,
      "Părăs": 7613,
      "Păsărea": 7614,
      "Păşind": 7615,
      "fiecar": 7616,
      "pândeşte": 7617,
      "plebei": 7618,
      "cântători": 7619,
      "cântăreaţă": 7620,
      "crud": 7621,
      "crudo": 7622,
      "aurul": 7623,
      "falcă": 7624,
      "veacul": 7625,
      "vească": 7626,
      "fericiţi": 7627,
      "fericirea": 7628,
      "fericirii": 7629,
      "asteaptă": 7630,
      "valurilor": 7631,
      "veselul": 7632,
      "veseliei": 7633,
      "stinsă": 7634,
      "stingi": 7635,
      "corb": 7636,
      "corte": 7637,
      "corpul": 7638,
      "palme": 7639,
      "ritmul": 7640,
      "câmpuri": 7641,
      "câmpului": 7642,
      "câmpiei": 7643,
      "amoru": 7644,
      "amoroasă": 7645,
      "amorţită": 7646,
      "amorţire": 7647,
      "norod": 7648,
      "unită": 7649,
      "murg": 7650,
      "murdare": 7651,
      "nceta": 7652,
      "neag": 7653,
      "mărge": 7654,
      "mărmuri": 7655,
      "mărgele": 7656,
      "steag": 7657,
      "steagul": 7658,
      "steaguri": 7659,
      "roată": 7660,
      "zicem": 7661,
      "adâncu": 7662,
      "anini": 7663,
      "anină": 7664,
      "anga": 7665,
      "dânşii": 7666,
      "văzându": 7667,
      "frază": 7668,
      "frasin": 7669,
      "plan": 7670,
      "placă": 7671,
      "planuri": 7672,
      "alburie": 7673,
      "Neclinti": 7674,
      "Nencetat": 7675,
      "Nevada": 7676,
      "Nemurire": 7677,
      "Nechezând": 7678,
      "molii": 7679,
      "Lupta": 7680,
      "Lumini": 7681,
      "Lumină": 7682,
      "nopţile": 7683,
      "curtea": 7684,
      "curgătoare": 7685,
      "privighează": 7686,
      "Aude": 7687,
      "Tresărind": 7688,
      "Trebuie": 7689,
      "Trezind": 7690,
      "martir": 7691,
      "potolit": 7692,
      "potrivi": 7693,
      "uşa": 7694,
      "uşă": 7695,
      "simţim": 7696,
      "cunoște": 7697,
      "soli": 7698,
      "sosi": 7699,
      "sobă": 7700,
      "socru": 7701,
      "solit": 7702,
      "sobei": 7703,
      "soseau": 7704,
      "socoţi": 7705,
      "sovăieste": 7706,
      "vecia": 7707,
      "suspine": 7708,
      "suspina": 7709,
      "jăn": 7710,
      "jăluit": 7711,
      "Răpi": 7712,
      "Răsună": 7713,
      "viitorul": 7714,
      "Dumnezeie": 7715,
      "izbea": 7716,
      "mpărate": 7717,
      "mpăratul": 7718,
      "mpărăţie": 7719,
      "prade": 7720,
      "pragul": 7721,
      "Conachi": 7722,
      "Mic": 7723,
      "Mici": 7724,
      "Mirea": 7725,
      "Miroase": 7726,
      "Mircea": 7727,
      "funii": 7728,
      "fundat": 7729,
      "ogra": 7730,
      "ogorul": 7731,
      "întregul": 7732,
      "vedeam": 7733,
      "gingaș": 7734,
      "gingaşi": 7735,
      "gingașei": 7736,
      "zâmbindu": 7737,
      "Prinde": 7738,
      "aprinsă": 7739,
      "aprinzi": 7740,
      "aprindă": 7741,
      "plumb": 7742,
      "pluteau": 7743,
      "plutești": 7744,
      "umedă": 7745,
      "umerii": 7746,
      "umerele": 7747,
      "încep": 7748,
      "încetează": 7749,
      "stih": 7750,
      "sticle": 7751,
      "dulcii": 7752,
      "dulcilor": 7753,
      "Multă": 7754,
      "Mulţămim": 7755,
      "noată": 7756,
      "toat": 7757,
      "vârte": 7758,
      "ocară": 7759,
      "plăcute": 7760,
      "plătiţi": 7761,
      "trântă": 7762,
      "luceferii": 7763,
      "amaruri": 7764,
      "mpreuna": 7765,
      "mpreunate": 7766,
      "Preot": 7767,
      "Prevestind": 7768,
      "terne": 7769,
      "încăl": 7770,
      "încălecat": 7771,
      "răţia": 7772,
      "Făcli": 7773,
      "Făptu": 7774,
      "Făclie": 7775,
      "dreg": 7776,
      "fulgi": 7777,
      "isman": 7778,
      "jude": 7779,
      "juva": 7780,
      "juguri": 7781,
      "juraţi": 7782,
      "ierte": 7783,
      "ierţi": 7784,
      "iertat": 7785,
      "ierbei": 7786,
      "ierburi": 7787,
      "miezul": 7788,
      "Rovine": 7789,
      "Rodică": 7790,
      "aperi": 7791,
      "junie": 7792,
      "junii": 7793,
      "juniei": 7794,
      "armelor": 7795,
      "mormânturi": 7796,
      "mormântului": 7797,
      "mormântală": 7798,
      "Florioara": 7799,
      "grabnic": 7800,
      "ridice": 7801,
      "ridicate": 7802,
      "vechiul": 7803,
      "vechime": 7804,
      "RELE": 7805,
      "RIOA": 7806,
      "RILE": 7807,
      "RIGO": 7808,
      "avere": 7809,
      "averi": 7810,
      "aveam": 7811,
      "drăgo": 7812,
      "punea": 7813,
      "mergând": 7814,
      "urmărit": 7815,
      "urmăresc": 7816,
      "deschid": 7817,
      "coame": 7818,
      "coama": 7819,
      "coamă": 7820,
      "coasa": 7821,
      "coada": 7822,
      "coajă": 7823,
      "celei": 7824,
      "priveste": 7825,
      "priveşti": 7826,
      "scaun": 7827,
      "scapă": 7828,
      "scazi": 7829,
      "âlnii": 7830,
      "răsplă": 7831,
      "colbul": 7832,
      "ntunec": 7833,
      "ntuneci": 7834,
      "ntunecând": 7835,
      "ntunecos": 7836,
      "poetic": 7837,
      "poezii": 7838,
      "poetica": 7839,
      "poetice": 7840,
      "poeziei": 7841,
      "frumosul": 7842,
      "aruncat": 7843,
      "aripioară": 7844,
      "Prive": 7845,
      "Pribe": 7846,
      "Priveli": 7847,
      "orasul": 7848,
      "cuprinși": 7849,
      "cuprinzi": 7850,
      "cuprindă": 7851,
      "cobori": 7852,
      "cobză": 7853,
      "iubea": 7854,
      "afle": 7855,
      "aflu": 7856,
      "afli": 7857,
      "aflat": 7858,
      "domnii": 7859,
      "domnesc": 7860,
      "domniţa": 7861,
      "hain": 7862,
      "ţule": 7863,
      "argintii": 7864,
      "lanţul": 7865,
      "lanterne": 7866,
      "călău": 7867,
      "călăto": 7868,
      "ntreaga": 7869,
      "gândită": 7870,
      "gândirilor": 7871,
      "Zile": 7872,
      "Zise": 7873,
      "Zicea": 7874,
      "Zilele": 7875,
      "Zimbru": 7876,
      "schiop": 7877,
      "uiește": 7878,
      "valma": 7879,
      "mierla": 7880,
      "strică": 7881,
      "stristea": 7882,
      "disme": 7883,
      "sângerate": 7884,
      "sângeros": 7885,
      "sângeroase": 7886,
      "verdele": 7887,
      "surile": 7888,
      "cântarea": 7889,
      "Feci": 7890,
      "Femeie": 7891,
      "TEI": 7892,
      "ntrebaţi": 7893,
      "urăm": 7894,
      "uraş": 7895,
      "urare": 7896,
      "urată": 7897,
      "urmat": 7898,
      "mbătau": 7899,
      "gheare": 7900,
      "ghearele": 7901,
      "fulgerat": 7902,
      "fulgerilor": 7903,
      "Vise": 7904,
      "Viclea": 7905,
      "Vitej": 7906,
      "durile": 7907,
      "proble": 7908,
      "protec": 7909,
      "procla": 7910,
      "proletare": 7911,
      "promoroacă": 7912,
      "zândă": 7913,
      "sprinceni": 7914,
      "pierd": 7915,
      "suspinare": 7916,
      "Daciei": 7917,
      "Legi": 7918,
      "Lemne": 7919,
      "OASĂ": 7920,
      "chinul": 7921,
      "chinuit": 7922,
      "fiica": 7923,
      "câmpiile": 7924,
      "zâmbesc": 7925,
      "zâmbetu": 7926,
      "zâmbetul": 7927,
      "zâmbește": 7928,
      "Babă": 7929,
      "bob": 7930,
      "bovite": 7931,
      "boieri": 7932,
      "bogate": 7933,
      "spec": 7934,
      "speran": 7935,
      "sperioase": 7936,
      "troheii": 7937,
      "şesuri": 7938,
      "şezătoare": 7939,
      "mișei": 7940,
      "mișcară": 7941,
      "strânsă": 7942,
      "strângi": 7943,
      "strângând": 7944,
      "Măriuţă": 7945,
      "Dulcea": 7946,
      "Dorm": 7947,
      "Doru": 7948,
      "Dorinţi": 7949,
      "Merin": 7950,
      "malurile": 7951,
      "vulpe": 7952,
      "legături": 7953,
      "legănată": 7954,
      "legănându": 7955,
      "răpire": 7956,
      "răpiţi": 7957,
      "răpigiune": 7958,
      "minunea": 7959,
      "tristul": 7960,
      "vecinicia": 7961,
      "vecinicii": 7962,
      "blândei": 7963,
      "tinul": 7964,
      "tinar": 7965,
      "ţinut": 7966,
      "deşteptate": 7967,
      "altfel": 7968,
      "tainicu": 7969,
      "mirese": 7970,
      "tinereţă": 7971,
      "tinereţei": 7972,
      "tinereţea": 7973,
      "dismierd": 7974,
      "dismierde": 7975,
      "dismierzi": 7976,
      "dismierdată": 7977,
      "bulă": 7978,
      "drumuri": 7979,
      "farmecelor": 7980,
      "goţii": 7981,
      "goneşte": 7982,
      "jeţ": 7983,
      "jesc": 7984,
      "stângă": 7985,
      "fanfare": 7986,
      "întunecat": 7987,
      "întunecos": 7988,
      "zâmbiri": 7989,
      "Magul": 7990,
      "Maghiar": 7991,
      "regelui": 7992,
      "cadână": 7993,
      "crunţi": 7994,
      "flaut": 7995,
      "prăpă": 7996,
      "prăpăst": 7997,
      "împins": 7998,
      "inimic": 7999,
      "inimile": 8000,
      "bersal": 8001,
      "puteţi": 8002,
      "puteai": 8003,
      "Suflete": 8004,
      "Sufletele": 8005,
      "gheară": 8006,
      "Câmpi": 8007,
      "INĂ": 8008,
      "Oriunde": 8009,
      "Orizon": 8010,
      "Orişiunde": 8011,
      "ptam": 8012,
      "șed": 8013,
      "șește": 8014,
      "ședea": 8015,
      "șezând": 8016,
      "ascunse": 8017,
      "Mers": 8018,
      "Mergem": 8019,
      "Văzduhul": 8020,
      "avântă": 8021,
      "naturii": 8022,
      "naturei": 8023,
      "şorţ": 8024,
      "renţa": 8025,
      "săltând": 8026,
      "săltăreţele": 8027,
      "luminei": 8028,
      "luminezi": 8029,
      "părului": 8030,
      "ghiul": 8031,
      "ghici": 8032,
      "ghioaga": 8033,
      "drepturi": 8034,
      "LEA": 8035,
      "LELE": 8036,
      "cântul": 8037,
      "cânturi": 8038,
      "slăvite": 8039,
      "tânără": 8040,
      "rătăceşte": 8041,
      "rătăcesc": 8042,
      "voiosul": 8043,
      "stingerea": 8044,
      "argintoasă": 8045,
      "LACUL": 8046,
      "boltele": 8047,
      "gomote": 8048,
      "orăcăiesc": 8049,
      "auzit": 8050,
      "auziţi": 8051,
      "auzişi": 8052,
      "vărsa": 8053,
      "vărsate": 8054,
      "strălucit": 8055,
      "strălucitori": 8056,
      "vorbeste": 8057,
      "vorbește": 8058,
      "CEA": 8059,
      "CESC": 8060,
      "Fac": 8061,
      "Fag": 8062,
      "Facă": 8063,
      "Fabulă": 8064,
      "Fuge": 8065,
      "friguri": 8066,
      "flămând": 8067,
      "hoţ": 8068,
      "sorile": 8069,
      "trufa": 8070,
      "trupu": 8071,
      "trudă": 8072,
      "înfloriţi": 8073,
      "răcni": 8074,
      "răcoarea": 8075,
      "mandarin": 8076,
      "măreţie": 8077,
      "gemen": 8078,
      "gemete": 8079,
      "fecior": 8080,
      "feciorii": 8081,
      "cântecul": 8082,
      "stăpânul": 8083,
      "picioarele": 8084,
      "ANI": 8085,
      "ANĂ": 8086,
      "ANII": 8087,
      "ANDRII": 8088,
      "ROBI": 8089,
      "Rege": 8090,
      "Regre": 8091,
      "creat": 8092,
      "zânei": 8093,
      "ţinem": 8094,
      "călca": 8095,
      "călcând": 8096,
      "călcat": 8097,
      "căldura": 8098,
      "lucească": 8099,
      "neisprăvit": 8100,
      "tremurânde": 8101,
      "scrise": 8102,
      "scrisă": 8103,
      "adorm": 8104,
      "adormire": 8105,
      "adormit": 8106,
      "adormită": 8107,
      "poporu": 8108,
      "copilărie": 8109,
      "mergeţi": 8110,
      "Uitarea": 8111,
      "Zbâr": 8112,
      "grier": 8113,
      "ostenit": 8114,
      "ușoară": 8115,
      "împăcată": 8116,
      "împărate": 8117,
      "împăraţi": 8118,
      "şoptire": 8119,
      "regine": 8120,
      "reginei": 8121,
      "seama": 8122,
      "mişca": 8123,
      "mişcând": 8124,
      "păreţii": 8125,
      "timpuri": 8126,
      "timpului": 8127,
      "timpurile": 8128,
      "spumegând": 8129,
      "liane": 8130,
      "libertatea": 8131,
      "sfârşeşte": 8132,
      "aprindeau": 8133,
      "Che": 8134,
      "Erau": 8135,
      "Polonie": 8136,
      "barcă": 8137,
      "barbă": 8138,
      "barbare": 8139,
      "talanga": 8140,
      "talisman": 8141,
      "zadarnic": 8142,
      "armăsar": 8143,
      "înalţ": 8144,
      "înalte": 8145,
      "înaltul": 8146,
      "caic": 8147,
      "candi": 8148,
      "candel": 8149,
      "nemurirea": 8150,
      "zească": 8151,
      "adaos": 8152,
      "zburdă": 8153,
      "legănate": 8154,
      "Doamnă": 8155,
      "Doamna": 8156,
      "Frunzele": 8157,
      "Limba": 8158,
      "Puter": 8159,
      "Vântu": 8160,
      "blonda": 8161,
      "puişor": 8162,
      "zgomotul": 8163,
      "răzbunare": 8164,
      "ramurile": 8165,
      "atâte": 8166,
      "roșu": 8167,
      "fiorare": 8168,
      "fioroşi": 8169,
      "Copiliţă": 8170,
      "Cântări": 8171,
      "Cântăreaţa": 8172,
      "clar": 8173,
      "eterna": 8174,
      "forma": 8175,
      "formă": 8176,
      "formele": 8177,
      "nţelegea": 8178,
      "ngropat": 8179,
      "ngrozeşte": 8180,
      "sala": 8181,
      "salu": 8182,
      "saloane": 8183,
      "salută": 8184,
      "zugră": 8185,
      "neamurile": 8186,
      "spaima": 8187,
      "primbla": 8188,
      "primblu": 8189,
      "primblare": 8190,
      "puternici": 8191,
      "puternică": 8192,
      "dimineţi": 8193,
      "năluciri": 8194,
      "nălucirei": 8195,
      "suflării": 8196,
      "știutoarea": 8197,
      "Veneţii": 8198,
      "fugarul": 8199,
      "sprinteoară": 8200,
      "flăcău": 8201,
      "Străin": 8202,
      "Străluci": 8203,
      "Străinel": 8204,
      "Taini": 8205,
      "azur": 8206,
      "azurie": 8207,
      "acopăr": 8208,
      "acoperi": 8209,
      "balcon": 8210,
      "balconul": 8211,
      "poală": 8212,
      "poamele": 8213,
      "riană": 8214,
      "dealurilor": 8215,
      "oamenii": 8216,
      "albiu": 8217,
      "României": 8218,
      "mișcări": 8219,
      "mișcătoare": 8220,
      "mișcătoarea": 8221,
      "clintit": 8222,
      "!»“": 8223,
      "Frumse": 8224,
      "Frumos": 8225,
      "oşire": 8226,
      "omenirii": 8227,
      "vailor": 8228,
      "vuietul": 8229,
      "cauţi": 8230,
      "mireasmă": 8231,
      "nemărginite": 8232,
      "stejarii": 8233,
      "întinderea": 8234,
      "frumoasei": 8235,
      "brazdei": 8236,
      "voieşte": 8237,
      "gondolier": 8238,
      "Lungă": 8239,
      "Lungi": 8240,
      "Singuri": 8241,
      "VERII": 8242,
      "furiş": 8243,
      "furiș": 8244,
      "greco": 8245,
      "greeri": 8246,
      "groaznic": 8247,
      "sorb": 8248,
      "sorţi": 8249,
      "scot": 8250,
      "spic": 8251,
      "spicuri": 8252,
      "scuturi": 8253,
      "tras": 8254,
      "îmbră": 8255,
      "îmblă": 8256,
      "îmblân": 8257,
      "însăși": 8258,
      "înţeleg": 8259,
      "înţelege": 8260,
      "răpejune": 8261,
      "răpegiune": 8262,
      "ciudă": 8263,
      "ciudată": 8264,
      "rugătoare": 8265,
      "vestite": 8266,
      "vestiţi": 8267,
      "fereste": 8268,
      "ferestrele": 8269,
      "bărbia": 8270,
      "zburare": 8271,
      "schimbe": 8272,
      "schimbat": 8273,
      "Mânca": 8274,
      "Mânele": 8275,
      "Pirami": 8276,
      "Pirenei": 8277,
      "Toamna": 8278,
      "Urlă": 8279,
      "apriga": 8280,
      "clătina": 8281,
      "gloria": 8282,
      "gloriei": 8283,
      "hotară": 8284,
      "luneci": 8285,
      "lunecos": 8286,
      "armat": 8287,
      "închide": 8288,
      "închiși": 8289,
      "părăsită": 8290,
      "cosiţa": 8291,
      "pasări": 8292,
      "Ceasul": 8293,
      "Ceahlău": 8294,
      "alerge": 8295,
      "tinerică": 8296,
      "drăgăstoasă": 8297,
      "Iubito": 8298,
      "ALBU": 8299,
      "Aleargă": 8300,
      "Biseri": 8301,
      "CONCE": 8302,
      "Munţi": 8303,
      "asprimea": 8304,
      "hidra": 8305,
      "himeric": 8306,
      "lţată": 8307,
      "omenie": 8308,
      "omeneşti": 8309,
      "spăla": 8310,
      "spăriată": 8311,
      "neted": 8312,
      "netede": 8313,
      "netezi": 8314,
      "netedă": 8315,
      "netezesc": 8316,
      "ursitu": 8317,
      "ursitul": 8318,
      "splendi": 8319,
      "fereastra": 8320,
      "ntinsa": 8321,
      "ntinsul": 8322,
      "ntindea": 8323,
      "povestește": 8324,
      "Vedeam": 8325,
      "plângător": 8326,
      "adâncile": 8327,
      "adâncită": 8328,
      "Luceste": 8329,
      "Luceferi": 8330,
      "scânteitoare": 8331,
      "cumpliti": 8332,
      "cumpliţii": 8333,
      "Sufletului": 8334,
      "Corbul": 8335,
      "DON": 8336,
      "Geniul": 8337,
      "MĂREI": 8338,
      "MĂVERII": 8339,
      "Nouri": 8340,
      "Nouraş": 8341,
      "STO": 8342,
      "STRO": 8343,
      "STRIGO": 8344,
      "TULUI": 8345,
      "Vineri": 8346,
      "aeriană": 8347,
      "bogată": 8348,
      "larg": 8349,
      "large": 8350,
      "largu": 8351,
      "ndără": 8352,
      "ncântări": 8353,
      "nchinăciune": 8354,
      "vânător": 8355,
      "dezleagă": 8356,
      "alintă": 8357,
      "cărările": 8358,
      "stuhul": 8359,
      "neclintită": 8360,
      "steluţele": 8361,
      "zidirea": 8362,
      "vijeliei": 8363,
      "urmeze": 8364,
      "scula": 8365,
      "lipsi": 8366,
      "lipsită": 8367,
      "lipite": 8368,
      "ntâlnesc": 8369,
      "prietin": 8370,
      "prieteni": 8371,
      "popoară": 8372,
      "apropii": 8373,
      "răspunse": 8374,
      "Codrule": 8375,
      "Codrului": 8376,
      "Cântare": 8377,
      "Dreptate": 8378,
      "Dreptatea": 8379,
      "Fiara": 8380,
      "Fiinţa": 8381,
      "Pasă": 8382,
      "Purta": 8383,
      "Visând": 8384,
      "Visuri": 8385,
      "Visurile": 8386,
      "aștern": 8387,
      "așterne": 8388,
      "harfe": 8389,
      "harnici": 8390,
      "harpele": 8391,
      "mâine": 8392,
      "mâini": 8393,
      "ngânaţi": 8394,
      "nvârti": 8395,
      "nvârtesc": 8396,
      "nvârtim": 8397,
      "obscur": 8398,
      "obştea": 8399,
      "pâraie": 8400,
      "prunc": 8401,
      "vrăbii": 8402,
      "șoptesc": 8403,
      "învinge": 8404,
      "învingător": 8405,
      "îndrăgit": 8406,
      "oanelor": 8407,
      "tăinuite": 8408,
      "răstoace": 8409,
      "sărim": 8410,
      "sărmanii": 8411,
      "mizeri": 8412,
      "căror": 8413,
      "cărbune": 8414,
      "zidurile": 8415,
      "colic": 8416,
      "colire": 8417,
      "spuma": 8418,
      "spumă": 8419,
      "ştergare": 8420,
      "culeg": 8421,
      "creştini": 8422,
      "creştină": 8423,
      "frunziş": 8424,
      "frunzișul": 8425,
      "braţu": 8426,
      "îngerului": 8427,
      "patrioţii": 8428,
      "cunoaşte": 8429,
      "perduţi": 8430,
      "grozave": 8431,
      "grozavă": 8432,
      "clocoti": 8433,
      "clocotind": 8434,
      "rătăcire": 8435,
      "rătăcitul": 8436,
      "rătăcitor": 8437,
      "Buf": 8438,
      "Fiecare": 8439,
      "MIOARE": 8440,
      "MIRCE": 8441,
      "MIJLO": 8442,
      "Sfarmă": 8443,
      "Sfintei": 8444,
      "cintece": 8445,
      "hamgerul": 8446,
      "işoara": 8447,
      "nviere": 8448,
      "nvietoare": 8449,
      "odoleană": 8450,
      "transpare": 8451,
      "ucide": 8452,
      "vâs": 8453,
      "vânat": 8454,
      "şoim": 8455,
      "armonii": 8456,
      "semeţe": 8457,
      "genelor": 8458,
      "coarda": 8459,
      "limpezeşte": 8460,
      "Călătorii": 8461,
      "lungeşte": 8462,
      "muşcată": 8463,
      "verdeaţa": 8464,
      "luminiș": 8465,
      "Răspân": 8466,
      "Răspând": 8467,
      "oglindează": 8468,
      "ORULUI": 8469,
      "troiene": 8470,
      "rotundu": 8471,
      "Admirând": 8472,
      "Curţii": 8473,
      "Glasuri": 8474,
      "Ieri": 8475,
      "Iese": 8476,
      "Insa": 8477,
      "Movi": 8478,
      "Mohamed": 8479,
      "Murgu": 8480,
      "PĂMÂNT": 8481,
      "PĂRŢI": 8482,
      "Plutea": 8483,
      "Trăieşte": 8484,
      "apuc": 8485,
      "apuce": 8486,
      "gali": 8487,
      "galii": 8488,
      "oftare": 8489,
      "oftând": 8490,
      "Şede": 8491,
      "șăgal": 8492,
      "degetul": 8493,
      "degetele": 8494,
      "cugetă": 8495,
      "cugetare": 8496,
      "chaosului": 8497,
      "părinte": 8498,
      "părinţii": 8499,
      "suit": 8500,
      "suitori": 8501,
      "surâs": 8502,
      "spadă": 8503,
      "femeile": 8504,
      "năltu": 8505,
      "nălţimea": 8506,
      "zburătoare": 8507,
      "zburători": 8508,
      "vredni": 8509,
      "trăsnit": 8510,
      "trăsnind": 8511,
      "trăsnesc": 8512,
      "trăsnet": 8513,
      "falnica": 8514,
      "falnică": 8515,
      "falnicul": 8516,
      "singurică": 8517,
      "purtându": 8518,
      "măreţului": 8519,
      "Pustiu": 8520,
      "Pustia": 8521,
      "drăgălaș": 8522,
      "popoarelor": 8523,
      "Crezi": 8524,
      "Inimile": 8525,
      "Patrie": 8526,
      "Patria": 8527,
      "Patriei": 8528,
      "Râul": 8529,
      "Zâmbe": 8530,
      "avari": 8531,
      "graiului": 8532,
      "jertfă": 8533,
      "nchine": 8534,
      "otelit": 8535,
      "smulge": 8536,
      "scurtei": 8537,
      "ĂTORII": 8538,
      "înălţată": 8539,
      "întorcându": 8540,
      "îngropat": 8541,
      "îngrozitoare": 8542,
      "îngrozitor": 8543,
      "lacrime": 8544,
      "mbete": 8545,
      "Cerbi": 8546,
      "pribeagă": 8547,
      "giganţi": 8548,
      "tulburat": 8549,
      "străinătatea": 8550,
      "cristalul": 8551,
      "triumfal": 8552,
      "desfătează": 8553,
      "desfășoară": 8554,
      "scălda": 8555,
      "tovarăş": 8556,
      "tovarăș": 8557,
      "fierbinţi": 8558,
      "cruciliţă": 8559,
      "Luminoasă": 8560,
      "fermecare": 8561,
      "fermecată": 8562,
      "mângăitor": 8563,
      "NOAPTE": 8564,
      "ADA": 8565,
      "Clopo": 8566,
      "IERNE": 8567,
      "MEA": 8568,
      "Miezul": 8569,
      "PASTE": 8570,
      "Rafael": 8571,
      "Turnuri": 8572,
      "anina": 8573,
      "boii": 8574,
      "galeși": 8575,
      "galerii": 8576,
      "galerie": 8577,
      "imnul": 8578,
      "imperi": 8579,
      "istorie": 8580,
      "loată": 8581,
      "ncălecat": 8582,
      "ncremenit": 8583,
      "nchinat": 8584,
      "scep": 8585,
      "scept": 8586,
      "Şoptea": 8587,
      "deșert": 8588,
      "desimea": 8589,
      "înfocare": 8590,
      "înfocate": 8591,
      "încremeni": 8592,
      "cavaler": 8593,
      "cavalerii": 8594,
      "mistui": 8595,
      "căprioare": 8596,
      "luptând": 8597,
      "nechezul": 8598,
      "nechezea": 8599,
      "veneau": 8600,
      "venetici": 8601,
      "veneţia": 8602,
      "mănăstire": 8603,
      "păstrează": 8604,
      "atingi": 8605,
      "ferino": 8606,
      "ntors": 8607,
      "locaş": 8608,
      "făcură": 8609,
      "întristat": 8610,
      "întristare": 8611,
      "întristată": 8612,
      "crivăţ": 8613,
      "portiţă": 8614,
      "albăstrele": 8615,
      "moşneag": 8616,
      ".......................................................................": 8617,
      "saraiuri": 8618,
      "glonţii": 8619,
      "Fulgeră": 8620,
      "mâhnit": 8621,
      "vâjie": 8622,
      "frumuseţi": 8623,
      "AMORUL": 8624,
      "Având": 8625,
      "Așa": 8626,
      "Apucând": 8627,
      "Flutu": 8628,
      "MOLDO": 8629,
      "Mormântul": 8630,
      "Noroc": 8631,
      "Provedin": 8632,
      "Provide": 8633,
      "Surioare": 8634,
      "Trage": 8635,
      "Voind": 8636,
      "Voinicele": 8637,
      "asameni": 8638,
      "asamăn": 8639,
      "frăţească": 8640,
      "mlădioasă": 8641,
      "nvăţat": 8642,
      "nfocată": 8643,
      "ncheie": 8644,
      "oştean": 8645,
      "obosi": 8646,
      "obosit": 8647,
      "usuc": 8648,
      "dedicată": 8649,
      "deopotrivă": 8650,
      "leneș": 8651,
      "înfiora": 8652,
      "înfloresc": 8653,
      "semnul": 8654,
      "semnal": 8655,
      "căzuse": 8656,
      "lucrat": 8657,
      "strâm": 8658,
      "strâmbă": 8659,
      "nebunie": 8660,
      "cocoşii": 8661,
      "copacii": 8662,
      "cofiţa": 8663,
      "dușman": 8664,
      "spinare": 8665,
      "sparge": 8666,
      "amintire": 8667,
      "rotirea": 8668,
      "rodire": 8669,
      "roditoare": 8670,
      "sirepi": 8671,
      "bădiţul": 8672,
      "puşcă": 8673,
      "admiră": 8674,
      "sublim": 8675,
      "sublimă": 8676,
      "cercam": 8677,
      "mușchi": 8678,
      "mușchiul": 8679,
      "prezentul": 8680,
      "grămăzi": 8681,
      "privighietoare": 8682,
      "răspândea": 8683,
      "răspândeşte": 8684,
      "propriu": 8685,
      "nuntaşi": 8686,
      "inspirarea": 8687,
      "adevărul": 8688,
      "stăpânirea": 8689,
      "zânelor": 8690,
      "seamăn": 8691,
      "creştinelor": 8692,
      "CÂNTICE": 8693,
      "Oamenii": 8694,
      "Gondole": 8695,
      "Adevăr": 8696,
      "Adeseori": 8697,
      "Barca": 8698,
      "Barba": 8699,
      "Neagra": 8700,
      "Neapoli": 8701,
      "Pali": 8702,
      "SFÂR": 8703,
      "Scumpul": 8704,
      "Strigă": 8705,
      "Trupul": 8706,
      "TRET": 8707,
      "TRECE": 8708,
      "Zbura": 8709,
      "Zburam": 8710,
      "blăste": 8711,
      "blăstă": 8712,
      "dungi": 8713,
      "grierul": 8714,
      "hucea": 8715,
      "hârtie": 8716,
      "imnuri": 8717,
      "nveseleşte": 8718,
      "nvingătoare": 8719,
      "slujeşte": 8720,
      "schele": 8721,
      "sfială": 8722,
      "snopuri": 8723,
      "sfărmate": 8724,
      "ţoşate": 8725,
      "despletită": 8726,
      "înclină": 8727,
      "încinge": 8728,
      "încordează": 8729,
      "petrele": 8730,
      "răcore": 8731,
      "cadavru": 8732,
      "melodie": 8733,
      "tablou": 8734,
      "cimpoi": 8735,
      "cimpoiul": 8736,
      "ieşise": 8737,
      "magică": 8738,
      "stejăriş": 8739,
      "vizir": 8740,
      "viziona": 8741,
      "covoaie": 8742,
      "numără": 8743,
      "biserica": 8744,
      "biserici": 8745,
      "Întâlnii": 8746,
      "sprijin": 8747,
      "sprijină": 8748,
      "fiindca": 8749,
      "Căldură": 8750,
      "Sărmanul": 8751,
      "bătătură": 8752,
      "bătălie": 8753,
      "bătute": 8754,
      "mpodobită": 8755,
      "adierea": 8756,
      "năzdrăvan": 8757,
      "aleagă": 8758,
      "ţesute": 8759,
      "străinii": 8760,
      "întâlnit": 8761,
      "sfaturi": 8762,
      "frumseţă": 8763,
      "brazilor": 8764,
      "despărţire": 8765,
      "Păstorii": 8766,
      "vecinătate": 8767,
      "văzutul": 8768,
      "privighitoare": 8769,
      "privighitoarea": 8770,
      "Rămâneţi": 8771,
      "strimte": 8772,
      "strimtoare": 8773,
      "liniștei": 8774,
      "tronului": 8775,
      "furtunoasă": 8776,
      "Poetul": 8777,
      "Poezie": 8778,
      "candela": 8779,
      "Lipsea": 8780,
      "mângâioase": 8781,
      "Simţiri": 8782,
      "CODRUL": 8783,
      "VISUL": 8784,
      "îndrăznea": 8785,
      "armonioase": 8786,
      "Adriatica": 8787,
      "Zâmbirea": 8788,
      "Zâmbitoare": 8789,
      "porumbilor": 8790,
      "Gingaş": 8791,
      "Calu": 8792,
      "CRIMIOARE": 8793,
      "Flămân": 8794,
      "Ghica": 8795,
      "Ghioaga": 8796,
      "Gândirile": 8797,
      "LĂCRIMIOARE": 8798,
      "MNĂ": 8799,
      "Mierla": 8800,
      "Omenirea": 8801,
      "Omenirei": 8802,
      "Pierdu": 8803,
      "Spuck": 8804,
      "TOAMNĂ": 8805,
      "Unui": 8806,
      "Umblă": 8807,
      "Vâj": 8808,
      "Verde": 8809,
      "adăpost": 8810,
      "astupă": 8811,
      "imbatrini": 8812,
      "nseninată": 8813,
      "obicei": 8814,
      "tâmplele": 8815,
      "ţintesc": 8816,
      "ţinteşte": 8817,
      "șeihului": 8818,
      "deşarte": 8819,
      "desparte": 8820,
      "aroma": 8821,
      "înşirate": 8822,
      "închine": 8823,
      "închina": 8824,
      "îndărătnic": 8825,
      "înconjoară": 8826,
      "orașul": 8827,
      "orașele": 8828,
      "catapetea": 8829,
      "razim": 8830,
      "razimi": 8831,
      "lagună": 8832,
      "veghere": 8833,
      "şirag": 8834,
      "măiestrită": 8835,
      "păcatul": 8836,
      "păcatele": 8837,
      "suferinţă": 8838,
      "titel": 8839,
      "viclean": 8840,
      "virtute": 8841,
      "virtutea": 8842,
      "duşmănia": 8843,
      "chioşc": 8844,
      "chioşcuri": 8845,
      "trebuia": 8846,
      "Dediţei": 8847,
      "spânzur": 8848,
      "lăsaţi": 8849,
      "limpide": 8850,
      "pahară": 8851,
      "pajuri": 8852,
      "ntoarse": 8853,
      "ntoarcă": 8854,
      "tupilată": 8855,
      "locurile": 8856,
      "mprăștie": 8857,
      "năvălire": 8858,
      "vieţuit": 8859,
      "frumuşei": 8860,
      "Durerea": 8861,
      "Duşmanul": 8862,
      "preţioase": 8863,
      "preotul": 8864,
      "pletoasă": 8865,
      "pletoase": 8866,
      "singurei": 8867,
      "singurel": 8868,
      "moșneag": 8869,
      "perdelele": 8870,
      "plutitor": 8871,
      "vestejită": 8872,
      "strigoii": 8873,
      "DESPĂRŢI": 8874,
      "Legănând": 8875,
      "sperărei": 8876,
      "somnoros": 8877,
      "somnoroasă": 8878,
      "sălbatec": 8879,
      "ghirlanda": 8880,
      "bolnav": 8881,
      "bolnavă": 8882,
      "stăpânește": 8883,
      "Libertatea": 8884,
      "Puteri": 8885,
      "Singurătăţii": 8886,
      "Urmărind": 8887,
      "clătinată": 8888,
      "drumetul": 8889,
      "grumaz": 8890,
      "lipsește": 8891,
      "amăgire": 8892,
      "amăgitor": 8893,
      "amărâtă": 8894,
      "Madonă": 8895,
      "Madonei": 8896,
      "nchinaţi": 8897,
      "sfetnici": 8898,
      "sfetnic": 8899,
      "înălbită": 8900,
      "întâmplărei": 8901,
      "sâmburul": 8902,
      "atmosfera": 8903,
      "Avem": 8904,
      "April": 8905,
      "Africa": 8906,
      "BOSF": 8907,
      "Crinul": 8908,
      "Clătin": 8909,
      "Cosân": 8910,
      "Comori": 8911,
      "Egipet": 8912,
      "FERI": 8913,
      "Fragii": 8914,
      "Frăţioare": 8915,
      "Hristos": 8916,
      "IUBI": 8917,
      "Isvoarele": 8918,
      "Logofete": 8919,
      "MOARTEA": 8920,
      "MALUL": 8921,
      "MURIND": 8922,
      "Ramses": 8923,
      "Sorioare": 8924,
      "Somnor": 8925,
      "Scânteie": 8926,
      "TARUL": 8927,
      "Urechea": 8928,
      "Universul": 8929,
      "Veacuri": 8930,
      "Zugrăvește": 8931,
      "Zânişoara": 8932,
      "Zamfira": 8933,
      "amiazi": 8934,
      "ascuţite": 8935,
      "agonie": 8936,
      "crainic": 8937,
      "eres": 8938,
      "enigmă": 8939,
      "estaz": 8940,
      "grâie": 8941,
      "mreajă": 8942,
      "nșiră": 8943,
      "namorată": 8944,
      "ncălzitoare": 8945,
      "ncleştează": 8946,
      "ngenuncheată": 8947,
      "omăt": 8948,
      "obrazul": 8949,
      "proaste": 8950,
      "pânditoare": 8951,
      "pâlpâie": 8952,
      "sonoră": 8953,
      "tunuri": 8954,
      "Înecat": 8955,
      "Împlându": 8956,
      "ŞTEPTA": 8957,
      "inaltimea": 8958,
      "inocentă": 8959,
      "temelie": 8960,
      "tezaur": 8961,
      "demoni": 8962,
      "deşert": 8963,
      "unghere": 8964,
      "înstelată": 8965,
      "îneacă": 8966,
      "înstrăinatul": 8967,
      "încruntaţi": 8968,
      "închipuirea": 8969,
      "organele": 8970,
      "rămurele": 8971,
      "capetele": 8972,
      "cafenele": 8973,
      "merinde": 8974,
      "seminţa": 8975,
      "alunecă": 8976,
      "sărăcia": 8977,
      "lacom": 8978,
      "căpătâi": 8979,
      "căsuţă": 8980,
      "căpiţă": 8981,
      "strună": 8982,
      "stâlpi": 8983,
      "nefiinţii": 8984,
      "nepreţ": 8985,
      "nepăsătoare": 8986,
      "nenumărate": 8987,
      "ruginită": 8988,
      "vestmin": 8989,
      "nimănui": 8990,
      "sugrumă": 8991,
      "tiranie": 8992,
      "vibrare": 8993,
      "comedia": 8994,
      "fetiţă": 8995,
      "painjăn": 8996,
      "ntristată": 8997,
      "Căprioara": 8998,
      "Căpitane": 8999,
      "princesii": 9000,
      "pururea": 9001,
      "lopeţile": 9002,
      "dărâmată": 9003,
      "mplinească": 9004,
      "născută": 9005,
      "poieniţă": 9006,
      "poleite": 9007,
      "tulpină": 9008,
      "focurele": 9009,
      "aceluiași": 9010,
      "buruiene": 9011,
      "busuioc": 9012,
      "Suspină": 9013,
      "Suvenirul": 9014,
      "turburată": 9015,
      "Păsărelele": 9016,
      "curcubei": 9017,
      "Tremurând": 9018,
      "Răzbătând": 9019,
      "mpărăte": 9020,
      "Argint": 9021,
      "jumătate": 9022,
      "răspândit": 9023,
      "Atunce": 9024,
      "Virtutea": 9025,
      "profet": 9026,
      "sprintioară": 9027,
      "liniştită": 9028,
      "bobocii": 9029,
      "...............................................................": 9030,
      "Ciocâr": 9031,
      "Ciripesc": 9032,
      "ţintirim": 9033,
      "concert": 9034,
      "mărgăritărele": 9035,
      "ROMANŢĂ": 9036,
      "Povestesc": 9037,
      "adaogi": 9038,
      "fântânei": 9039,
      "bărbăţie": 9040,
      "Picioarele": 9041,
      "Pitpalacul": 9042,
      "smălţuite": 9043,
      "Paserea": 9044,
      "Oaspeţii": 9045,
      "PĂSĂRICA": 9046,
      "nălţător": 9047,
      "Clopotul": 9048,
      "GONDO": 9049,
      "cincizeci": 9050,
      "maghiari": 9051,
      "Drăgăla": 9052,
      "Trupuşoru": 9053,
      "schinteie": 9054,
      "melodios": 9055,
      "VENEŢIA": 9056,
      "posomorâte": 9057,
      "păinjenișul": 9058,
      "pizmuire": 9059,
      "ndrăgesc": 9060,
      "ROZELOR": 9061,
      "evlavie": 9062,
      "există": 9063,
      "Aproape": 9064,
      "Aripi": 9065,
      "Arătând": 9066,
      "Asia": 9067,
      "Atotștiutoarea": 9068,
      "CINEL": 9069,
      "Daleu": 9070,
      "Emmi": 9071,
      "Euro": 9072,
      "Florenţa": 9073,
      "Fermecat": 9074,
      "Grija": 9075,
      "Gârbovite": 9076,
      "HOŢUL": 9077,
      "Iambii": 9078,
      "Ileana": 9079,
      "LÂNGĂ": 9080,
      "MUNTE": 9081,
      "Oltul": 9082,
      "PRIMĂVERII": 9083,
      "PORTRET": 9084,
      "Siera": 9085,
      "Solferino": 9086,
      "Strungă": 9087,
      "SINGU": 9088,
      "Sfântului": 9089,
      "SUNT": 9090,
      "Sonet": 9091,
      "Tunetul": 9092,
      "Teiul": 9093,
      "Trandafiri": 9094,
      "Vreau": 9095,
      "VREM": 9096,
      "Willy": 9097,
      "aievea": 9098,
      "academii": 9099,
      "ftane": 9100,
      "foarte": 9101,
      "florind": 9102,
      "grâne": 9103,
      "garofi": 9104,
      "hlamide": 9105,
      "joncă": 9106,
      "moaşte": 9107,
      "nlănţ": 9108,
      "nduioşire": 9109,
      "ocoleste": 9110,
      "sinistru": 9111,
      "sosind": 9112,
      "snopi": 9113,
      "zdrumicate": 9114,
      "zodii": 9115,
      "Şoapta": 9116,
      "ţurţuri": 9117,
      "șuieră": 9118,
      "reurca": 9119,
      "respinge": 9120,
      "recunoască": 9121,
      "instelata": 9122,
      "infern": 9123,
      "infinit": 9124,
      "desfrânate": 9125,
      "ungher": 9126,
      "artistă": 9127,
      "înfăș": 9128,
      "încerci": 9129,
      "îngâm": 9130,
      "însemnat": 9131,
      "însemnează": 9132,
      "îngrămădite": 9133,
      "tăbărâ": 9134,
      "semănat": 9135,
      "săptămâni": 9136,
      "lampei": 9137,
      "căruia": 9138,
      "nencepută": 9139,
      "nevăzută": 9140,
      "nentrerupt": 9141,
      "păscar": 9142,
      "suflând": 9143,
      "victimă": 9144,
      "reazem": 9145,
      "combate": 9146,
      "conture": 9147,
      "scrâncio": 9148,
      "Deopotrivă": 9149,
      "Destule": 9150,
      "Întinzând": 9151,
      "Cutrieră": 9152,
      "otrăvitoare": 9153,
      "papuc": 9154,
      "pagode": 9155,
      "tumultuoase": 9156,
      "Sămănătorii": 9157,
      "câștigul": 9158,
      "dispreţ": 9159,
      "zbucium": 9160,
      "nagâţii": 9161,
      "dactile": 9162,
      "neghiobi": 9163,
      "vreodata": 9164,
      "musteaţa": 9165,
      "bubuieşte": 9166,
      "buzdugan": 9167,
      "Vestitoarea": 9168,
      "îngenunchează": 9169,
      "Mărăcină": 9170,
      "Părăsind": 9171,
      "fiecarui": 9172,
      "Neclintite": 9173,
      "Făptura": 9174,
      "RIOARA": 9175,
      "Viclean": 9176,
      "Vitejii": 9177,
      "prăpăstii": 9178,
      "Orizonul": 9179,
      "Regret": 9180,
      "Piramidele": 9181,
      "Biserica": 9182,
      "CONCERTUL": 9183,
      "obşteasca": 9184,
      "MIRCEŞTI": 9185,
      "MIJLOC": 9186,
      "Zâmbeşte": 9187,
      "IERNEI": 9188,
      "PASTEL": 9189,
      "Provedinţă": 9190,
      "SFÂRŞI": 9191,
      "Spucker": 9192,
      "ŞTEPTAREA": 9193,
      "!?": 9194,
      "!!...": 9195,
      "\",": 9196,
      "\"...": 9197,
      "'!": 9198,
      "';": 9199,
      "),": 9200,
      ").": 9201,
      ",“": 9202,
      ",--": 9203,
      ".,": 9204,
      "AF": 9205,
      "AG": 9206,
      "AI": 9207,
      "An": 9208,
      "Ao": 9209,
      "As": 9210,
      "Ace": 9211,
      "Ape": 9212,
      "Ame": 9213,
      "Acă": 9214,
      "Auri": 9215,
      "Apă": 9216,
      "Aco": 9217,
      "Asp": 9218,
      "Ală": 9219,
      "Ali": 9220,
      "Asa": 9221,
      "Amin": 9222,
      "Apar": 9223,
      "Acel": 9224,
      "Anin": 9225,
      "Anii": 9226,
      "Astea": 9227,
      "Apare": 9228,
      "Amar": 9229,
      "Avântul": 9230,
      "Alung": 9231,
      "ADE": 9232,
      "Alungă": 9233,
      "ACE": 9234,
      "Atici": 9235,
      "Apără": 9236,
      "Acelor": 9237,
      "Astu": 9238,
      "Amorţi": 9239,
      "Aprind": 9240,
      "Abătând": 9241,
      "Adormi": 9242,
      "AŢA": 9243,
      "Aceea": 9244,
      "Asfin": 9245,
      "Apol": 9246,
      "Aspiră": 9247,
      "Aurora": 9248,
      "Aprinsă": 9249,
      "Așezând": 9250,
      "Aţintesc": 9251,
      "AŞTEPTAREA": 9252,
      "BR": 9253,
      "By": 9254,
      "Bâ": 9255,
      "BĂ": 9256,
      "Bul": 9257,
      "Bun": 9258,
      "Blân": 9259,
      "Bel": 9260,
      "Ber": 9261,
      "Bâr": 9262,
      "Buna": 9263,
      "Buni": 9264,
      "Bog": 9265,
      "Bâl": 9266,
      "Blan": 9267,
      "Brâu": 9268,
      "Blânde": 9269,
      "BIN": 9270,
      "BAL": 9271,
      "BREI": 9272,
      "Boce": 9273,
      "BANUL": 9274,
      "CÂ": 9275,
      "Cin": 9276,
      "Cul": 9277,
      "Cle": 9278,
      "Coa": 9279,
      "Cră": 9280,
      "Crea": 9281,
      "Cli": 9282,
      "Coate": 9283,
      "Crâ": 9284,
      "Col": 9285,
      "Ciz": 9286,
      "Carme": 9287,
      "CRE": 9288,
      "COA": 9289,
      "COR": 9290,
      "Cresc": 9291,
      "CAN": 9292,
      "Corul": 9293,
      "Craiul": 9294,
      "Ciute": 9295,
      "CRA": 9296,
      "Clar": 9297,
      "Curme": 9298,
      "Cala": 9299,
      "Crește": 9300,
      "Coasele": 9301,
      "CĂT": 9302,
      "Cinti": 9303,
      "Crăci": 9304,
      "COARE": 9305,
      "CLOA": 9306,
      "CINĂ": 9307,
      "Dori": 9308,
      "Dur": 9309,
      "Dai": 9310,
      "Dochii": 9311,
      "Don": 9312,
      "Dari": 9313,
      "Dalbă": 9314,
      "Dan": 9315,
      "Dalb": 9316,
      "Dumbră": 9317,
      "Dis": 9318,
      "Doarme": 9319,
      "DUI": 9320,
      "DRA": 9321,
      "Dja": 9322,
      "DRUL": 9323,
      "DĂTORII": 9324,
      "EI": 9325,
      "EL": 9326,
      "EM": 9327,
      "ET": 9328,
      "Et": 9329,
      "EŢ": 9330,
      "Ede": 9331,
      "Eschi": 9332,
      "Evul": 9333,
      "Eroi": 9334,
      "EST": 9335,
      "ETUL": 9336,
      "Emirul": 9337,
      "ESC": 9338,
      "EPI": 9339,
      "EGI": 9340,
      "EZUL": 9341,
      "Egală": 9342,
      "FO": 9343,
      "Fri": 9344,
      "For": 9345,
      "Fat": 9346,
      "Fată": 9347,
      "Fel": 9348,
      "Fap": 9349,
      "FUL": 9350,
      "Foc": 9351,
      "FÂN": 9352,
      "Frate": 9353,
      "Fraţi": 9354,
      "FRA": 9355,
      "FREA": 9356,
      "FURI": 9357,
      "FLOR": 9358,
      "Frânt": 9359,
      "GR": 9360,
      "Gre": 9361,
      "Gân": 9362,
      "Grea": 9363,
      "Gai": 9364,
      "Giu": 9365,
      "Gale": 9366,
      "Glume": 9367,
      "Gât": 9368,
      "Groa": 9369,
      "Galb": 9370,
      "GRI": 9371,
      "Grâu": 9372,
      "GÂN": 9373,
      "GLA": 9374,
      "GUI": 9375,
      "Graţi": 9376,
      "Gae": 9377,
      "Goană": 9378,
      "GLO": 9379,
      "Gânduri": 9380,
      "Gândind": 9381,
      "GAT": 9382,
      "GLIN": 9383,
      "GROZ": 9384,
      "Gali": 9385,
      "GURILE": 9386,
      "GANI": 9387,
      "HN": 9388,
      "Hi": 9389,
      "Hră": 9390,
      "Hra": 9391,
      "Huri": 9392,
      "Hoi": 9393,
      "Her": 9394,
      "Hol": 9395,
      "Han": 9396,
      "Hora": 9397,
      "Hoţi": 9398,
      "Horă": 9399,
      "HTUL": 9400,
      "HLUI": 9401,
      "HAM": 9402,
      "Hârâ": 9403,
      "Hoţii": 9404,
      "Havu": 9405,
      "Halu": 9406,
      "HAI": 9407,
      "IX": 9408,
      "Ii": 9409,
      "Ial": 9410,
      "Iti": 9411,
      "Izb": 9412,
      "Ista": 9413,
      "IUL": 9414,
      "Ideal": 9415,
      "IUN": 9416,
      "Inchi": 9417,
      "ICA": 9418,
      "Istori": 9419,
      "Ivită": 9420,
      "ICI": 9421,
      "IDA": 9422,
      "Irlan": 9423,
      "Ingâna": 9424,
      "Imnul": 9425,
      "IRILE": 9426,
      "IOASĂ": 9427,
      "JO": 9428,
      "Ju": 9429,
      "Jă": 9430,
      "Jar": 9431,
      "Jal": 9432,
      "Joi": 9433,
      "June": 9434,
[...]
